{"id_to_token": {"0": "\u0000", "1": "\u0001", "2": "\u0002", "3": "\u0003", "4": "\u0004", "5": "\u0005", "6": "\u0006", "7": "\u0007", "8": "\b", "9": "\t", "10": "\n", "11": "\u000b", "12": "\f", "13": "\r", "14": "\u000e", "15": "\u000f", "16": "\u0010", "17": "\u0011", "18": "\u0012", "19": "\u0013", "20": "\u0014", "21": "\u0015", "22": "\u0016", "23": "\u0017", "24": "\u0018", "25": "\u0019", "26": "\u001a", "27": "\u001b", "28": "\u001c", "29": "\u001d", "30": "\u001e", "31": "\u001f", "32": "!", "33": "\"", "34": "#", "35": "$", "36": "%", "37": "&", "38": "'", "39": "(", "40": ")", "41": "*", "42": "+", "43": ",", "44": "-", "45": ".", "46": "/", "47": "0", "48": "1", "49": "2", "50": "3", "51": "4", "52": "5", "53": "6", "54": "7", "55": "8", "56": "9", "57": ":", "58": ";", "59": "<", "60": "=", "61": ">", "62": "?", "63": "@", "64": "A", "65": "B", "66": "C", "67": "D", "68": "E", "69": "F", "70": "G", "71": "H", "72": "I", "73": "J", "74": "K", "75": "L", "76": "M", "77": "N", "78": "O", "79": "P", "80": "Q", "81": "R", "82": "S", "83": "T", "84": "U", "85": "V", "86": "W", "87": "X", "88": "Y", "89": "Z", "90": "[", "91": "\\", "92": "]", "93": "^", "94": "_", "95": "`", "96": "a", "97": "b", "98": "c", "99": "d", "100": "e", "101": "f", "102": "g", "103": "h", "104": "i", "105": "j", "106": "k", "107": "l", "108": "m", "109": "n", "110": "o", "111": "p", "112": "q", "113": "r", "114": "s", "115": "t", "116": "u", "117": "v", "118": "w", "119": "x", "120": "y", "121": "z", "122": "{", "123": "|", "124": "}", "125": "~", "126": "", "127": "", "128": "", "129": "", "130": "", "131": "", "132": "", "133": "", "134": "", "135": "", "136": "", "137": "", "138": "", "139": "", "140": "", "141": "", "142": "", "143": "", "144": "", "145": "", "146": "", "147": "", "148": "", "149": "", "150": "", "151": "", "152": "", "153": "", "154": "", "155": "", "156": "", "157": "", "158": "", "159": " ", "160": "¡", "161": "¢", "162": "£", "163": "¤", "164": "¥", "165": "¦", "166": "§", "167": "¨", "168": "©", "169": "ª", "170": "«", "171": "¬", "172": "­", "173": "®", "174": "¯", "175": "°", "176": "±", "177": "²", "178": "³", "179": "´", "180": "µ", "181": "¶", "182": "·", "183": "¸", "184": "¹", "185": "º", "186": "»", "187": "¼", "188": "½", "189": "¾", "190": "¿", "191": "À", "192": "Á", "193": "Â", "194": "Ã", "195": "Ä", "196": "Å", "197": "Æ", "198": "Ç", "199": "È", "200": "É", "201": "Ê", "202": "Ë", "203": "Ì", "204": "Í", "205": "Î", "206": "Ï", "207": "Ð", "208": "Ñ", "209": "Ò", "210": "Ó", "211": "Ô", "212": "Õ", "213": "Ö", "214": "×", "215": "Ø", "216": "Ù", "217": "Ú", "218": "Û", "219": "Ü", "220": "Ý", "221": "Þ", "222": "ß", "223": "à", "224": "á", "225": "â", "226": "ã", "227": "ä", "228": "å", "229": "æ", "230": "ç", "231": "è", "232": "é", "233": "ê", "234": "ë", "235": "ì", "236": "í", "237": "î", "238": "ï", "239": "ð", "240": "ñ", "241": "ò", "242": "ó", "243": "ô", "244": "õ", "245": "ö", "246": "÷", "247": "ø", "248": "ù", "249": "ú", "250": "û", "251": "ü", "252": "ý", "253": "þ", "254": "ÿ", "255": "ā", "256": "Ġ", "257": "ī", "258": "Ł", "259": "ő", "260": "œ", "261": "Γ", "262": "Δ", "263": "Θ", "264": "Λ", "265": "Ξ", "266": "Π", "267": "Σ", "268": "Υ", "269": "Φ", "270": "Ψ", "271": "Ω", "272": "α", "273": "β", "274": "γ", "275": "δ", "276": "ε", "277": "ζ", "278": "η", "279": "θ", "280": "κ", "281": "λ", "282": "μ", "283": "ν", "284": "ξ", "285": "π", "286": "ρ", "287": "σ", "288": "τ", "289": "φ", "290": "χ", "291": "ψ", "292": "ω", "293": "eĠ", "294": "in", "295": "sĠ", "296": "on", "297": "ti", "298": "th", "299": "er", "300": "dĠ", "301": "en", "302": "an", "303": "re", "304": "al", "305": "tĠ", "306": "or", "307": ",Ġ", "308": "ing", "309": "tion", "310": "yĠ", "311": "ar", "312": "ro", "313": "at", "314": "ingĠ", "315": "st", "316": "edĠ", "317": ".Ġ", "318": "theĠ", "319": "ic", "320": "ac", "321": "de", "322": "andĠ", "323": "alĠ", "324": "aĠ", "325": "ation", "326": "si", "327": "esĠ", "328": "oĠ", "329": "co", "330": "as", "331": "le", "332": "ur", "333": "it", "334": "es", "335": "erĠ", "336": "of", "337": "mp", "338": "ra", "339": "for", "340": "di", "341": "lyĠ", "342": "toĠ", "343": "pro", "344": "ec", "345": "con", "346": "un", "347": "mo", "348": "ofĠ", "349": "ationĠ", "350": "me", "351": "ch", "352": "ent", "353": "ab", "354": "ul", "355": "isĠ", "356": "atĠ", "357": "lo", "358": "onĠ", "359": "res", "360": "leĠ", "361": "ex", "362": "entĠ", "363": "veĠ", "364": "inĠ", "365": "mĠ", "366": "per", "367": "el", "368": "ith", "369": "s,Ġ", "370": "anĠ", "371": "ri", "372": "ver", "373": "uc", "374": "se", "375": "ag", "376": "thatĠ", "377": "ap", "378": "del", "379": "po", "380": "tionĠ", "381": "wh", "382": "il", "383": "is", "384": "int", "385": "tic", "386": "with", "387": "model", "388": "ut", "389": "hĠ", "390": "str", "391": "forĠ", "392": "s.Ġ", "393": "su", "394": "qu", "395": "kĠ", "396": "comp", "397": "ceĠ", "398": "us", "399": "vi", "400": "et", "401": "ateĠ", "402": "iz", "403": "ma", "404": "tr", "405": "ig", "406": "enĠ", "407": "withĠ", "408": "orĠ", "409": "ow", "410": "sp", "411": "ad", "412": "wor", "413": "tra", "414": "im", "415": "ff", "416": "asĠ", "417": "tiveĠ", "418": "form", "419": ",ĠandĠ", "420": "Th", "421": "ol", "422": ")Ġ", "423": "pre", "424": "fi", "425": "dat", "426": "ityĠ", "427": "tim", "428": "ev", "429": "e-", "430": "WeĠ", "431": "sh", "432": "und", "433": "sc", "434": "ed", "435": "pl", "436": "gen", "437": "areĠ", "438": "arn", "439": "bu", "440": "duc", "441": "no", "442": "em", "443": "cl", "444": "byĠ", "445": "nĠ", "446": "tsĠ", "447": "ter", "448": "learn", "449": "fro", "450": "ableĠ", "451": "am", "452": "op", "453": "seĠ", "454": "rec", "455": "all", "456": "icĠ", "457": "train", "458": "\n\n", "459": "weĠ", "460": "ir", "461": "bas", "462": "pres", "463": "fromĠ", "464": ".\n\n", "465": "par", "466": "the", "467": "cont", "468": "igh", "469": ".ĠTh", "470": "allyĠ", "471": "ach", "472": "ou", "473": "ticĠ", "474": "bo", "475": "ssĠ", "476": "to", "477": ".ĠWeĠ", "478": "thisĠ", "479": "id", "480": "atedĠ", "481": "struc", "482": "imp", "483": "ureĠ", "484": "gener", "485": "ure", "486": "ect", "487": "dic", "488": "alu", "489": "arg", "490": "enc", "491": "sig", "492": "ari", "493": "itĠ", "494": "gra", "495": "y,Ġ", "496": "ne", "497": "tiv", "498": "mul", "499": "if", "500": ":Ġ", "501": "modelĠ", "502": "sĠandĠ", "503": "tho", "504": "workĠ", "505": "ageĠ", "506": "ment", "507": "icalĠ", "508": "ep", "509": "sy", "510": "abil", "511": "fin", "512": "our", "513": "com", "514": "do", "515": "enceĠ", "516": "rossĠ", "517": "e,Ġ", "518": "ileĠ", "519": "anceĠ", "520": "inter", "521": "low", "522": "enti", "523": "te", "524": "eff", "525": "fra", "526": "ang", "527": "dingĠ", "528": "we", "529": "dsĠ", "530": "reg", "531": "be", "532": "chĠ", "533": "sionĠ", "534": "cur", "535": "metho", "536": "stĠ", "537": "predic", "538": "ob", "539": "up", "540": "thĠ", "541": "owĠ", "542": "dep", "543": "sa", "544": "etĠ", "545": "li", "546": "perform", "547": "ong", "548": "whileĠ", "549": "ationsĠ", "550": "ug", "551": "therĠ", "552": "learningĠ", "553": "basedĠ", "554": "deĠ", "555": "fer", "556": "arĠ", "557": "ph", "558": "sion", "559": "aliz", "560": "sign", "561": "ingĠtheĠ", "562": "ain", "563": "acrossĠ", "564": "modelsĠ", "565": "struct", "566": "elĠ", "567": "ofĠtheĠ", "568": "atesĠ", "569": "tas", "570": "es,Ġ", "571": "canĠ", "572": "anc", "573": "ineĠ", "574": "frame", "575": "fe", "576": "ans", "577": "lĠ", "578": "entsĠ", "579": "dist", "580": "optim", "581": "0.", "582": "evalu", "583": "erv", "584": "ichĠ", "585": "end", "586": "ici", "587": "cor", "588": "eseĠ", "589": "propo", "590": "out", "591": "ativeĠ", "592": "itsĠ", "593": "spec", "594": "lec", "595": "whichĠ", "596": "multi", "597": "mar", "598": "work", "599": "trainingĠ", "600": "vari", "601": "appro", "602": "clas", "603": "ĠandĠ", "604": "mon", "605": "diff", "606": "ci", "607": ",ĠweĠ", "608": "y-", "609": "ardĠ", "610": "um", "611": "impro", "612": "uralĠ", "613": "ten", "614": ".ĠTheĠ", "615": "loc", "616": "resul", "617": "prob", "618": "achĠ", "619": "scal", "620": "para", "621": "dition", "622": "dataĠ", "623": "pa", "624": "ha", "625": "stan", "626": "verĠ", "627": "),Ġ", "628": "der", "629": "frameworkĠ", "630": "sub", "631": "essĠ", "632": "ail", "633": "LM", "634": "min", "635": "ist", "636": "mat", "637": "ve", "638": "mor", "639": "%Ġ", "640": "al-", "641": ".ĠA", "642": "underĠ", "643": "repres", "644": "outĠ", "645": "ud", "646": "$Ġ", "647": "estĠ", "648": "lev", "649": "abl", "650": "redĠ", "651": "ing,Ġ", "652": "ticalĠ", "653": "ay", "654": "ben", "655": "notĠ", "656": "syst", "657": "man", "658": "tingĠ", "659": "mentĠ", "660": "ualĠ", "661": "tedĠ", "662": "tionsĠ", "663": "ack", "664": "por", "665": "roug", "666": "abilityĠ", "667": "duceĠ", "668": "metr", "669": "reas", "670": "ful", "671": "arch", "672": "unc", "673": "samp", "674": "ribu", "675": "requ", "676": "eg", "677": "ib", "678": "log", "679": "ourĠ", "680": "fo", "681": "tw", "682": "pri", "683": "accur", "684": "-basedĠ", "685": "InĠ", "686": "pol", "687": "xĠ", "688": "represent", "689": "butĠ", "690": "allĠ", "691": "ine", "692": "eng", "693": "showĠ", "694": "fac", "695": "ereĠ", "696": "intro", "697": "high", "698": "esĠtheĠ", "699": "datas", "700": "s,ĠandĠ", "701": "task", "702": "improv", "703": "jec", "704": "pr", "705": "ever", "706": "main", "707": "rel", "708": "ran", "709": "optimiz", "710": "achi", "711": "aryĠ", "712": "throug", "713": "exper", "714": "provi", "715": "tt", "716": "atingĠ", "717": "reeĠ", "718": "irĠ", "719": "ess", "720": "comple", "721": "parame", "722": "ation,Ġ", "723": "overĠ", "724": "comput", "725": "chmar", "726": "ll", "727": "ge", "728": "beĠ", "729": "iesĠ", "730": "larg", "731": "benchmar", "732": "thanĠ", "733": "onlyĠ", "734": "terĠ", "735": "aus", "736": "intoĠ", "737": "sist", "738": "aly", "739": "trans", "740": "contro", "741": "LLM", "742": "demon", "743": "Ex", "744": "demonstr", "745": "yn", "746": "serv", "747": "ousĠ", "748": "ip", "749": "net", "750": "theseĠ", "751": "ret", "752": "cap", "753": "feat", "754": "direc", "755": "inĠtheĠ", "756": "over", "757": "mod", "758": "'sĠ", "759": "accurac", "760": "lat", "761": "expl", "762": "effici", "763": "elyĠ", "764": "analy", "765": "angu", "766": "dg", "767": "he", "768": "throughĠ", "769": "av", "770": "antĠ", "771": "cover", "772": "proposeĠ", "773": "edĠbyĠ", "774": "gro", "775": "es.Ġ", "776": "ant", "777": "iti", "778": "distribu", "779": "basel", "780": "asĠaĠ", "781": ",ĠaĠ", "782": "onĠtheĠ", "783": "oneĠ", "784": "ati", "785": "weigh", "786": "s.ĠTh", "787": "sing", "788": "showĠthatĠ", "789": "om", "790": "val", "791": "condition", "792": "adap", "793": "clu", "794": "ongĠ", "795": "ext", "796": "s-", "797": "effec", "798": "achiev", "799": "ersĠ", "800": "ynam", "801": "d-", "802": "pu", "803": "ech", "804": "wĠ", "805": "stra", "806": "usingĠ", "807": "derĠ", "808": "performanceĠ", "809": "resultsĠ", "810": "spac", "811": "estim", "812": "bothĠ", "813": "icationĠ", "814": "depend", "815": "uresĠ", "816": "theirĠ", "817": ";Ġ", "818": "proble", "819": "soĠ", "820": "sol", "821": "ity", "822": "ta", "823": "whereĠ", "824": "lim", "825": "stud", "826": "timeĠ", "827": "s.ĠWeĠ", "828": "exp", "829": "istingĠ", "830": "bet", "831": "siveĠ", "832": "suchĠ", "833": "non", "834": "ĠtoĠ", "835": "dynam", "836": "twoĠ", "837": "inc", "838": "sesĠ", "839": "differ", "840": "dis", "841": "data", "842": "e.Ġ", "843": "iseĠ", "844": "introduceĠ", "845": "langu", "846": "sĠaĠ", "847": "AĠ", "848": "oper", "849": "levelĠ", "850": "dataset", "851": "epĠ", "852": "consist", "853": "toĠtheĠ", "854": "methodsĠ", "855": "ferenceĠ", "856": "sĠofĠ", "857": "st-", "858": "targ", "859": "itect", "860": "ject", "861": "selec", "862": "gu", "863": "reduc", "864": "ementĠ", "865": "ty", "866": "whenĠ", "867": "eachĠ", "868": "--", "869": "architect", "870": "ToĠ", "871": "err", "872": "gor", "873": "proc", "874": ".ĠThisĠ", "875": "inform", "876": "s.\n\n", "877": "fir", "878": "mis", "879": "ationalĠ", "880": "valu", "881": "ron", "882": "entlyĠ", "883": "sĠtheĠ", "884": "trainedĠ", "885": "tok", "886": "kn", "887": "icallyĠ", "888": "sĠtoĠ", "889": "LĠ", "890": "sup", "891": "system", "892": "tionalĠ", "893": "emp", "894": "DĠ", "895": "constra", "896": "sĠ(", "897": "lab", "898": "det", "899": "identi", "900": ".ĠO", "901": "sedĠ", "902": "men", "903": "adĠ", "904": "00", "905": "xim", "906": "specif", "907": "ator", "908": "oft", "909": "encyĠ", "910": "Mo", "911": "super", "912": "know", "913": "sampl", "914": "urĠ", "915": "temp", "916": "bin", "917": "line", "918": "withoutĠ", "919": "appl", "920": "ther", "921": "att", "922": "meas", "923": "observ", "924": "sur", "925": "bi", "926": "ign", "927": "trac", "928": "dimen", "929": "tyĠ", "930": "ast", "931": "mainĠ", "932": "resp", "933": "multi-", "934": "accuracyĠ", "935": "polic", "936": "gorith", "937": "iv", "938": "languageĠ", "939": "cal", "940": "yingĠ", "941": "beha", "942": "limit", "943": "vis", "944": "parameter", "945": "bound", "946": "enco", "947": "objec", "948": "owever", "949": "aw", "950": "match", "951": "algorith", "952": "imentsĠ", "953": "demonstrateĠ", "954": "classi", "955": "func", "956": "ding", "957": "cu", "958": "sĠthatĠ", "959": "construc", "960": "off", "961": "erg", "962": "cent", "963": "produc", "964": "alleng", "965": "edĠtoĠ", "966": "alityĠ", "967": "ann", "968": "moreĠ", "969": "sen", "970": "remain", "971": "typ", "972": "behavi", "973": "sĠareĠ", "974": "ustĠ", "975": "challeng", "976": "kingĠ", "977": "under", "978": "sequ", "979": "owever,Ġ", "980": "ero", "981": "betwe", "982": "EĠ", "983": "lay", "984": "ular", "985": "aredĠ", "986": "betweenĠ", "987": "dri", "988": "intĠ", "989": "fail", "990": "singĠ", "991": "anti", "992": "fix", "993": "oftenĠ", "994": "tern", "995": "bl", "996": "deci", "997": "stat", "998": "formĠ", "999": "rew", "1000": "methodĠ", "1001": "of-", "1002": "benchmark", "1003": "comm", "1004": "reli", "1005": "entialĠ", "1006": "uni", "1007": "add", "1008": "s)Ġ", "1009": "anis", "1010": ".ĠInĠ", "1011": "oralĠ", "1012": "eĠtheĠ", "1013": "loy", "1014": "ateg", "1015": "actĠ", "1016": "tion,Ġ", "1017": "dimension", "1018": "phĠ", "1019": "ularĠ", "1020": "hy", "1021": "withĠaĠ", "1022": "neuralĠ", "1023": "reason", "1024": "extĠ", "1025": "esĠaĠ", "1026": "threeĠ", "1027": "IĠ", "1028": "tun", "1029": "hasĠ", "1030": "lowĠ", "1031": "vid", "1032": "stand", "1033": "Co", "1034": "ros", "1035": "aut", "1036": "esĠandĠ", "1037": "equ", "1038": "til", "1039": "ific", "1040": "geo", "1041": "TĠ", "1042": "t-", "1043": "analysi", "1044": "In", "1045": "sib", "1046": "addres", "1047": "est", "1048": "existingĠ", "1049": "forc", "1050": "le-", "1051": "syn", "1052": "high-", "1053": "umĠ", "1054": "memor", "1055": "studyĠ", "1056": "alsoĠ", "1057": "gradi", "1058": "enabl", "1059": "sett", "1060": "align", "1061": "tlyĠ", "1062": "back", "1063": "phy", "1064": "baselin", "1065": "suppor", "1066": "specificĠ", "1067": "structure", "1068": "howĠ", "1069": "mech", "1070": "can", "1071": "quanti", "1072": "tur", "1073": "taskĠ", "1074": "atten", "1075": "correc", "1076": "0Ġ", "1077": "ass", "1078": "fiedĠ", "1079": "predictionĠ", "1080": "However,Ġ", "1081": "isticĠ", "1082": "policyĠ", "1083": "mi", "1084": "compo", "1085": "requi", "1086": "are", "1087": "ationĠandĠ", "1088": "er-", "1089": "inĠaĠ", "1090": "utionĠ", "1091": "ear", "1092": "suchĠasĠ", "1093": "ameĠ", "1094": "network", "1095": "syste", "1096": "jector", "1097": "simul", "1098": "ke", "1099": "contin", "1100": ",ĠtheĠ", "1101": "disc", "1102": "actionĠ", "1103": "ell", "1104": "undĠ", "1105": "ldĠ", "1106": "eri", "1107": "increas", "1108": "alizedĠ", "1109": "NN", "1110": "elf", "1111": "urtherĠ", "1112": "rea", "1113": "putĠ", "1114": "isĠaĠ", "1115": "tor", "1116": "ation.Ġ", "1117": "noĠ", "1118": "graph", "1119": "metricĠ", "1120": "ity,Ġ", "1121": "num", "1122": "trajector", "1123": "ibr", "1124": "den", "1125": "preserv", "1126": "prac", "1127": "linearĠ", "1128": "furtherĠ", "1129": "siz", "1130": "mechanis", "1131": "du", "1132": "lop", "1133": "diver", "1134": "ficationĠ", "1135": "non-", "1136": "put", "1137": "and", "1138": "therĠthanĠ", "1139": "singleĠ", "1140": "haveĠ", "1141": "respon", "1142": "deploy", "1143": "ore", "1144": "Re", "1145": "desĠ", "1146": "conver", "1147": "ho", "1148": "phys", "1149": "scaleĠ", "1150": "atorĠ", "1151": "fl", "1152": "ackĠ", "1153": "ing.Ġ", "1154": "acc", "1155": "to-", "1156": "inclu", "1157": "SĠ", "1158": "time", "1159": "approachĠ", "1160": "latentĠ", "1161": "graphĠ", "1162": "point", "1163": "eĠofĠ", "1164": "posi", "1165": "ed-", "1166": "largeĠ", "1167": "problem", "1168": "interpre", "1169": "nessĠ", "1170": "ard", "1171": "stanti", "1172": "awareĠ", "1173": "velop", "1174": "real-", "1175": "optimizationĠ", "1176": "s,ĠweĠ", "1177": "cros", "1178": "combin", "1179": "ven", "1180": "1.", "1181": "au", "1182": "show", "1183": "bed", "1184": "chang", "1185": "spar", "1186": "sĠforĠ", "1187": "ally,Ġ", "1188": "lineĠ", "1189": "$\\", "1190": "worldĠ", "1191": "canĠbeĠ", "1192": "iel", "1193": "sameĠ", "1194": "approach", "1195": "2Ġ", "1196": "able", "1197": "dynamic", "1198": "s:Ġ", "1199": "sour", "1200": "ort", "1201": "generaliz", "1202": "signĠ", "1203": "ticallyĠ", "1204": "mostĠ", "1205": "detec", "1206": "low-", "1207": "caus", "1208": "ratherĠthanĠ", "1209": "standardĠ", "1210": "integ", "1211": "ationĠofĠ", "1212": "continu", "1213": "rib", "1214": "dow", "1215": "coun", "1216": "provideĠ", "1217": "errorĠ", "1218": "label", "1219": "approxim", "1220": "develop", "1221": "ingĠaĠ", "1222": "setting", "1223": "calibr", "1224": "dependentĠ", "1225": "informationĠ", "1226": "localĠ", "1227": "deco", "1228": "efficientĠ", "1229": "keĠ", "1230": "MĠ", "1231": "improvesĠ", "1232": "RĠ", "1233": "strateg", "1234": "Con", "1235": "yiel", "1236": "tran", "1237": "s.ĠTheĠ", "1238": "ni", "1239": "resĠ", "1240": "networkĠ", "1241": "valid", "1242": "inferenceĠ", "1243": "onĠaĠ", "1244": "centr", "1245": "viron", "1246": "self", "1247": "spaceĠ", "1248": "ures", "1249": "setĠ", "1250": "targetĠ", "1251": "fine-", "1252": "sm", "1253": "clo", "1254": "synthe", "1255": "withĠtheĠ", "1256": "firstĠ", "1257": "fromĠtheĠ", "1258": "forec", "1259": "1Ġ", "1260": "sco", "1261": "ish", "1262": "CĠ", "1263": "cross-", "1264": "pleĠ", "1265": "remainsĠ", "1266": "temporalĠ", "1267": "tivelyĠ", "1268": "usionĠ", "1269": "proposedĠ", "1270": "environ", "1271": "-f", "1272": "sho", "1273": "embed", "1274": "explic", "1275": "yetĠ", "1276": "token", "1277": "integr", "1278": "aseĠ", "1279": "erta", "1280": "col", "1281": "differentĠ", "1282": "controll", "1283": "gap", "1284": "ĠĠ", "1285": "featureĠ", "1286": "scor", "1287": "distributionĠ", "1288": "-levelĠ", "1289": "theyĠ", "1290": "compar", "1291": "outperform", "1292": "Exper", "1293": "interpret", "1294": "fulĠ", "1295": "avail", "1296": "cri", "1297": "viaĠ", "1298": "separ", "1299": "establ", "1300": ".ĠF", "1301": "reasoningĠ", "1302": "signific", "1303": "achievesĠ", "1304": "2.", "1305": "ot", "1306": "structureĠ", "1307": "izationĠ", "1308": "app", "1309": "presentĠ", "1310": "hol", "1311": "designĠ", "1312": "rop", "1313": "ferenc", "1314": "stateĠ", "1315": "weightĠ", "1316": "amp", "1317": "evaluationĠ", "1318": "ris", "1319": "orm", "1320": "benchmarkĠ", "1321": "ayĠ", "1322": "knowle", "1323": ".ĠAĠ", "1324": "demonstrateĠthatĠ", "1325": "includingĠ", "1326": "PĠ", "1327": "agno", "1328": "text", "1329": "resi", "1330": "recover", "1331": "algorithm", "1332": "gene", "1333": "cep", "1334": "ligh", "1335": "fyĠ", "1336": "ub", "1337": "dgeĠ", "1338": ".ĠTheseĠ", "1339": "substanti", "1340": "run", "1341": "astĠ", "1342": "atis", "1343": "ste", "1344": "long", "1345": "gateĠ", "1346": "domain", "1347": "driv", "1348": "addressĠ", "1349": "jo", "1350": "ribut", "1351": "method", "1352": "ser", "1353": "sĠinĠ", "1354": "rout", "1355": "rob", "1356": "sĠwithĠ", "1357": "signal", "1358": "state-", "1359": "fa", "1360": "attentionĠ", "1361": "artĠ", "1362": "o-", "1363": "imag", "1364": "ainstĠ", "1365": "sianĠ", "1366": "parameterĠ", "1367": "budg", "1368": "lob", "1369": "learnedĠ", "1370": "statis", "1371": "tre", "1372": "vol", "1373": "theore", "1374": "inforc", "1375": "reamĠ", "1376": "ations,Ġ", "1377": "sch", "1378": "regi", "1379": "uncerta", "1380": "streamĠ", "1381": "experimentsĠ", "1382": "mil", "1383": "werĠ", "1384": "test", "1385": "everyĠ", "1386": "whe", "1387": "adv", "1388": "againstĠ", "1389": "iteĠ", "1390": "evaluateĠ", "1391": "problemĠ", "1392": "forĠtheĠ", "1393": "modalĠ", "1394": "controlĠ", "1395": "cost", "1396": "vers", "1397": "transform", "1398": "sto", "1399": "evid", "1400": "pat", "1401": ")ĠandĠ", "1402": "ord", "1403": "dimensionalĠ", "1404": "forecast", "1405": "thenĠ", "1406": "hor", "1407": "ide", "1408": "newĠ", "1409": ".ĠOurĠ", "1410": "20", "1411": "ation-", "1412": "deter", "1413": "ed,Ġ", "1414": "crossĠ", "1415": "uringĠ", "1416": "tion-", "1417": "teĠ", "1418": "memoryĠ", "1419": "whetherĠ", "1420": "agg", "1421": "strongĠ", "1422": "saf", "1423": "mach", "1424": "design", "1425": "spati", "1426": "glob", "1427": "sec", "1428": "agentĠ", "1429": "exten", "1430": "multipleĠ", "1431": "useĠ", "1432": "tri", "1433": "promp", "1434": "ingĠandĠ", "1435": "aver", "1436": "per-", "1437": "hum", "1438": "testĠ", "1439": "5Ġ", "1440": "ous", "1441": "her", "1442": "the-", "1443": "measure", "1444": "seman", "1445": "BĠ", "1446": "nov", "1447": "target", "1448": "char", "1449": "fine-tun", "1450": "uncertaint", "1451": "GP", "1452": "optimalĠ", "1453": "frameworkĠthatĠ", "1454": "inedĠ", "1455": "structuralĠ", "1456": "guid", "1457": "ainĠ", "1458": "Wh", "1459": "frameworkĠforĠ", "1460": "fixedĠ", "1461": "shif", "1462": "qualityĠ", "1463": "inforcementĠ", "1464": "wiseĠ", "1465": "formul", "1466": "t,Ġ", "1467": "bust", "1468": "regres", "1469": "relyĠ", "1470": "effectiveĠ", "1471": "charac", "1472": "het", "1473": "gradientĠ", "1474": "strong", "1475": ".ĠS", "1476": "activ", "1477": "pip", "1478": "spectr", "1479": "),ĠaĠ", "1480": "AR", "1481": "compon", "1482": "Net", "1483": "constraint", "1484": "esĠofĠ", "1485": "riev", "1486": "--Ġ", "1487": "tool", "1488": "Tr", "1489": "nat", "1490": "usedĠ", "1491": "pipel", "1492": "lossĠ", "1493": "found", "1494": "ingĠ(", "1495": "ucc", "1496": "dateĠ", "1497": "rando", "1498": "ainsĠ", "1499": "entalĠ", "1500": "costĠ", "1501": "robust", "1502": "rentĠ", "1503": "e,ĠandĠ", "1504": "read", "1505": "contextĠ", "1506": "sibleĠ", "1507": "character", "1508": "hetero", "1509": "LLMĠ", "1510": "upĠtoĠ", "1511": "cho", "1512": "visedĠ", "1513": "group", "1514": "stepĠ", "1515": "Un", "1516": "dualĠ", "1517": "iter", "1518": "ondĠ", "1519": "anyĠ", "1520": "domainĠ", "1521": "ern", "1522": "practicalĠ", "1523": "environment", "1524": "succ", "1525": "ditionalĠ", "1526": "generationĠ", "1527": "requir", "1528": "representationĠ", "1529": "deepĠ", "1530": "real-worldĠ", "1531": "foreĠ", "1532": "decision", "1533": "datasetĠ", "1534": "robustĠ", "1535": "s.ĠO", "1536": "mb", "1537": "tru", "1538": "ill", "1539": "partic", "1540": "down", "1541": "3.", "1542": "applic", "1543": "rewardĠ", "1544": "availableĠ", "1545": "training", "1546": "heterogene", "1547": "empir", "1548": "ak", "1549": "toĠaĠ", "1550": "iveĠ", "1551": "mas", "1552": "capt", "1553": "clin", "1554": "auto", "1555": "self-", "1556": "thatĠtheĠ", "1557": "updat", "1558": "sampleĠ", "1559": "perĠ", "1560": "norm", "1561": "es,ĠandĠ", "1562": "introduc", "1563": "repl", "1564": "Le", "1565": ".ĠToĠ", "1566": "pe", "1567": "-to-", "1568": "d,Ġ", "1569": "icul", "1570": "4Ġ", "1571": "Lo", "1572": "fic", "1573": "fam", "1574": "performanc", "1575": "composi", "1576": "izedĠ", "1577": "systemĠ", "1578": "retriev", "1579": "math", "1580": "suff", "1581": "computationalĠ", "1582": "RL", "1583": "vie", "1584": "atĠtheĠ", "1585": "degra", "1586": "numb", "1587": "PO", "1588": "mayĠ", "1589": "supervisedĠ", "1590": "in-", "1591": "aperĠ", "1592": "complex", "1593": "upl", "1594": "of-the-", "1595": "10", "1596": ",ĠwhichĠ", "1597": "fourĠ", "1598": "esĠinĠ", "1599": "bri", "1600": "coll", "1601": "stric", "1602": "RA", "1603": "Ne", "1604": "exec", "1605": "class", "1606": "metric", "1607": "sever", "1608": "classificationĠ", "1609": "tokenĠ", "1610": ".ĠB", "1611": "directlyĠ", "1612": "s.ĠA", "1613": "assu", "1614": "fiel", "1615": "orderĠ", "1616": "determin", "1617": "ishĠ", "1618": "improveĠ", "1619": "pointĠ", "1620": "scen", "1621": "util", "1622": "sourceĠ", "1623": "resol", "1624": "state-of-the-", "1625": "predictiveĠ", "1626": "agnos", "1627": "ation,ĠandĠ", "1628": "representationsĠ", "1629": "sityĠ", "1630": "globalĠ", "1631": "step", "1632": "aggreg", "1633": "bal", "1634": "reve", "1635": "paperĠ", "1636": "3Ġ", "1637": "tions,Ġ", "1638": "explo", "1639": "process", "1640": "priv", "1641": "proto", "1642": "dingsĠ", "1643": "induc", "1644": "who", "1645": "s.ĠInĠ", "1646": "consistentlyĠ", "1647": "lement", "1648": "priorĠ", "1649": "set", "1650": "error", "1651": "-specificĠ", "1652": "state-of-the-artĠ", "1653": "dig", "1654": "sĠonĠ", "1655": "proper", "1656": "regular", "1657": "long-", "1658": "compres", "1659": "evol", "1660": "repor", "1661": "proposeĠaĠ", "1662": "syntheticĠ", "1663": "structuredĠ", "1664": "rateĠ", "1665": "(S", "1666": "asĠtheĠ", "1667": "eringĠ", "1668": "energ", "1669": "genceĠ", "1670": "usĠ", "1671": "oryĠ", "1672": "pec", "1673": "meanĠ", "1674": "generativeĠ", "1675": "ExperimentsĠ", "1676": "nec", "1677": "parti", "1678": "ordin", "1679": "objectiv", "1680": "esĠareĠ", "1681": "en-", "1682": "oug", "1683": "minim", "1684": "post-", "1685": "layerĠ", "1686": "mov", "1687": "featuresĠ", "1688": "defin", "1689": "ps", "1690": "idĠ", "1691": "guar", "1692": "desc", "1693": "rang", "1694": "simp", "1695": "valueĠ", "1696": "detectionĠ", "1697": "eck", "1698": "reconstruc", "1699": "horiz", "1700": "esĠtoĠ", "1701": "torĠ", "1702": "pĠ", "1703": "GĠ", "1704": "pas", "1705": "isĠtheĠ", "1706": "logicalĠ", "1707": "adapt", "1708": "6Ġ", "1709": "inci", "1710": "mix", "1711": "comeĠ", "1712": "fig", "1713": "import", "1714": "ExistingĠ", "1715": "gg", "1716": "es.ĠWeĠ", "1717": "pair", "1718": "sensi", "1719": "downstreamĠ", "1720": "ighĠ", "1721": "hel", "1722": "ecaus", "1723": "simil", "1724": "fil", "1725": "quer", "1726": "aug", "1727": "supportĠ", "1728": "requiresĠ", "1729": "duringĠ", "1730": "ante", "1731": "RLĠ", "1732": "Di", "1733": "guarante", "1734": "iceĠ", "1735": "maint", "1736": "Trans", "1737": "chas", "1738": "fullĠ", "1739": "ent-", "1740": "htt", "1741": "languageĠmodelsĠ", "1742": "candi", "1743": ":/", "1744": "evaluatedĠ", "1745": "outperformsĠ", "1746": "://", "1747": "uldĠ", "1748": "relativeĠ", "1749": "analysisĠ", "1750": "ques", "1751": "AIĠ", "1752": "spe", "1753": "experim", "1754": "https", "1755": "https://", "1756": "baselineĠ", "1757": "clust", "1758": "publ", "1759": ",ĠwhileĠ", "1760": "framework", "1761": "comparedĠ", "1762": "novelĠ", "1763": "codeĠ", "1764": "Ad", "1765": "drivenĠ", "1766": "teach", "1767": "0.9", "1768": "ground", "1769": "af", "1770": "eĠtoĠ", "1771": "resultingĠ", "1772": "deriv", "1773": "turb", "1774": "e.ĠWeĠ", "1775": "adaptiveĠ", "1776": "cas", "1777": "explicitĠ", "1778": "machineĠ", "1779": "highĠ", "1780": "oc", "1781": "ialĠ", "1782": "ellĠ", "1783": "tech", "1784": "selectionĠ", "1785": "objectiveĠ", "1786": "themĠ", "1787": "lessĠ", "1788": "bestĠ", "1789": "context", "1790": "algorithmĠ", "1791": "fol", "1792": "ferĠ", "1793": "endĠ", "1794": "(M", "1795": "numberĠ", "1796": "smallĠ", "1797": "medi", "1798": "ity-", "1799": "single-", "1800": "princi", "1801": "ofĠaĠ", "1802": "criticalĠ", "1803": "ability", "1804": "evidenceĠ", "1805": "ly,Ġ", "1806": "safet", "1807": "map", "1808": "s.ĠF", "1809": "hib", "1810": "architectureĠ", "1811": "y.Ġ", "1812": "geometr", "1813": "rol", "1814": "atelyĠ", "1815": "remainĠ", "1816": "8Ġ", "1817": "s.ĠThisĠ", "1818": "causalĠ", "1819": "geĠ", "1820": "evenĠ", "1821": "signalĠ", "1822": "intoĠaĠ", "1823": "knowledgeĠ", "1824": ".ĠAcrossĠ", "1825": "so", "1826": "andĠtheĠ", "1827": "lead", "1828": "buil", "1829": "fid", "1830": ".ĠInĠthisĠ", "1831": "lic", "1832": "substantiallyĠ", "1833": "input", "1834": "complexĠ", "1835": "uncertaintyĠ", "1836": "AI", "1837": "mag", "1838": "ing,ĠandĠ", "1839": "inv", "1840": "Gra", "1841": "models,Ġ", "1842": "inalĠ", "1843": "fromĠaĠ", "1844": "consistentĠ", "1845": "typicallyĠ", "1846": "exactĠ", "1847": "k-", "1848": ".ĠOnĠ", "1849": "reinforcementĠ", "1850": "config", "1851": "de-", "1852": "bloc", "1853": "generatedĠ", "1854": "sharedĠ", "1855": "realĠ", "1856": "eti", "1857": "al,Ġ", "1858": "udi", "1859": "De", "1860": "cre", "1861": "ilityĠ", "1862": "quant", "1863": "till", "1864": "stochas", "1865": "opĠ", "1866": "imageĠ", "1867": "ithub", "1868": "$,Ġ", "1869": "varianceĠ", "1870": "classĠ", "1871": "order", "1872": "there", "1873": "decisionĠ", "1874": "diverseĠ", "1875": "reach", "1876": "interac", "1877": "noiseĠ", "1878": "lin", "1879": "manyĠ", "1880": "keyĠ", "1881": "win", "1882": "pot", "1883": "rit", "1884": "diffusionĠ", "1885": "-freeĠ", "1886": "doesĠ", "1887": "Model", "1888": "difficul", "1889": "github", "1890": "preservingĠ", "1891": "confid", "1892": "github.", "1893": "y,ĠandĠ", "1894": "approachesĠ", "1895": "-1", "1896": "correl", "1897": "spatialĠ", "1898": "cle", "1899": "initi", "1900": "behaviorĠ", "1901": "fullyĠ", "1902": "functionĠ", "1903": "residualĠ", "1904": "4.", "1905": "scoreĠ", "1906": "riskĠ", "1907": "mak", "1908": "tasksĠ", "1909": "kern", "1910": "(C", "1911": "relev", "1912": "hi", "1913": "ateĠtheĠ", "1914": "lowerĠ", "1915": "frequ", "1916": "clinicalĠ", "1917": "Pro", "1918": "uleĠ", "1919": "=Ġ", "1920": "systemsĠ", "1921": "agentsĠ", "1922": "sparseĠ", "1923": "yieldsĠ", "1924": "semanticĠ", "1925": "whoseĠ", "1926": "MA", "1927": "rat", "1928": "car", "1929": "wid", "1930": "samplingĠ", "1931": "likeĠ", "1932": "ing-", "1933": "work,ĠweĠ", "1934": "head", "1935": "configur", "1936": "inputĠ", "1937": "controlledĠ", "1938": "identifyĠ", "1939": "Transform", "1940": "competi", "1941": "tĠtheĠ", "1942": "pre-", "1943": "maticĠ", "1944": "giv", "1945": "ref", "1946": "ST", "1947": "chann", "1948": "har", "1949": "knownĠ", "1950": "alignmentĠ", "1951": "}Ġ", "1952": "not", "1953": "speci", "1954": "empiricalĠ", "1955": "perturb", "1956": "Gaus", "1957": "boundĠ", "1958": "dedĠ", "1959": "mean", "1960": "use", "1961": "indic", "1962": "ainingĠ", "1963": "los", "1964": "tu", "1965": "abiliti", "1966": "augment", "1967": "studi", "1968": "zero", "1969": ").Ġ", "1970": "regim", "1971": "domin", "1972": "commun", "1973": "sizeĠ", "1974": "pattern", "1975": "onlineĠ", "1976": "AU", "1977": "control", "1978": "ItĠ", "1979": "nes", "1980": "mechanism", "1981": "foundationĠ", "1982": "datasetsĠ", "1983": "spectralĠ", "1984": "ric", "1985": "iredĠ", "1986": "numberĠofĠ", "1987": "sk", "1988": "veri", "1989": "region", "1990": "findĠ", "1991": "s.ĠToĠ", "1992": "makingĠ", "1993": "neuralĠnetwork", "1994": "tow", "1995": "UĠ", "1996": "ere", "1997": "-Ġ", "1998": "basedĠonĠ", "1999": "physicalĠ", "2000": "paradig", "2001": "sideĠ", "2002": "independentĠ", "2003": "humanĠ", "2004": "extrac", "2005": "yondĠ", "2006": "near", "2007": "visualĠ", "2008": "scenari", "2009": "rollo", "2010": "inglyĠ", "2011": "lever", "2012": "averageĠ", "2013": "T-", "2014": "smo", "2015": "one-", "2016": "explor", "2017": "inferenc", "2018": "^{", "2019": "(i", "2020": "com/", "2021": "inst", "2022": "es.\n\n", "2023": "mechanismĠ", "2024": "$-", "2025": "SA", "2026": "gapĠ", "2027": "light", "2028": "paper", "2029": "enablesĠ", "2030": "NĠ", "2031": "headĠ", "2032": "collap", "2033": "fiveĠ", "2034": "transi", "2035": "stochasticĠ", "2036": "esĠthatĠ", "2037": "provide", "2038": "limitedĠ", "2039": "alizationĠ", "2040": "discover", "2041": "corpor", "2042": "multimodalĠ", "2043": "eveĠ", "2044": "tĠtoĠ", "2045": "continuousĠ", "2046": "relyĠonĠ", "2047": "Learn", "2048": "preci", "2049": "transfer", "2050": "coupl", "2051": "on-", "2052": "esĠforĠ", "2053": "antlyĠ", "2054": "ensiveĠ", "2055": "tion.Ġ", "2056": "backb", "2057": "reco", "2058": "edĠforĠ", "2059": "thoug", "2060": "github.com/", "2061": "odĠ", "2062": "proveĠ", "2063": "(1", "2064": "PD", "2065": "visionĠ", "2066": "mark", "2067": "-of-", "2068": "conditionalĠ", "2069": "factor", "2070": "advers", "2071": "WhileĠ", "2072": "two-", "2073": "enablingĠ", "2074": "5.", "2075": "resour", "2076": "polici", "2077": "classicalĠ", "2078": "ent,Ġ", "2079": "se-", "2080": "output", "2081": "faceĠ", "2082": "vingĠ", "2083": "ditĠ", "2084": "establishĠ", "2085": "pen", "2086": "neg", "2087": "constrainedĠ", "2088": "energyĠ", "2089": "https://github.com/", "2090": "sci", "2091": "rankĠ", "2092": "implement", "2093": "Qw", "2094": "gment", "2095": "behavior", "2096": "ax", "2097": "0.0", "2098": "data-", "2099": "quantumĠ", "2100": "privac", "2101": "heterogeneousĠ", "2102": "spl", "2103": "erarch", "2104": "attack", "2105": "ce", "2106": "aboutĠ", "2107": "anningĠ", "2108": "increasinglyĠ", "2109": "reducesĠ", "2110": "reshol", "2111": "randomĠ", "2112": "smoo", "2113": "wardĠ", "2114": "matchedĠ", "2115": "Rec", "2116": "aff", "2117": "feed", "2118": ")$Ġ", "2119": "budget", "2120": "exhib", "2121": "vect", "2122": "ef", "2123": "beenĠ", "2124": "classifi", "2125": "processĠ", "2126": "altern", "2127": "dynamicĠ", "2128": ".ĠTheseĠresultsĠ", "2129": "eratedĠ", "2130": "distill", "2131": "stableĠ", "2132": "expres", "2133": "shotĠ", "2134": "len", "2135": "inver", "2136": "surro", "2137": "threshol", "2138": "doesĠnotĠ", "2139": "theoreticalĠ", "2140": "ouslyĠ", "2141": "agnosticĠ", "2142": "balanc", "2143": "s,ĠtheĠ", "2144": "particular", "2145": "coordin", "2146": "fut", "2147": "matri", "2148": "referenceĠ", "2149": "failureĠ", "2150": "outputĠ", "2151": "currentĠ", "2152": "ecauseĠ", "2153": "fund", "2154": "recur", "2155": "bias", "2156": "pag", "2157": "archĠ", "2158": "reinforcementĠlearningĠ", "2159": "qual", "2160": "reliableĠ", "2161": "advant", "2162": "grow", "2163": "RO", "2164": "lex", "2165": "hist", "2166": "establish", "2167": "dec", "2168": "ationĠ(", "2169": "quantiz", "2170": "numer", "2171": "famil", "2172": "techni", "2173": "searchĠ", "2174": "molec", "2175": "mustĠ", "2176": "ML", "2177": "physic", "2178": "wide", "2179": "assump", "2180": "doĠ", "2181": "modelingĠ", "2182": "sĠfromĠ", "2183": "bro", "2184": "andĠaĠ", "2185": "indi", "2186": "joint", "2187": "ule", "2188": "ite-", "2189": "logyĠ", "2190": "interven", "2191": "competitiveĠ", "2192": "erti", "2193": "tualĠ", "2194": "transferĠ", "2195": "achieveĠ", "2196": "withinĠ", "2197": "otherĠ", "2198": "amongĠ", "2199": "flu", "2200": "eli", "2201": "usesĠ", "2202": "TheĠ", "2203": "significantĠ", "2204": "na", "2205": "rip", "2206": "wasĠ", "2207": "path", "2208": "Bay", "2209": "sum", "2210": "froz", "2211": "atureĠ", "2212": "efficiencyĠ", "2213": "enh", "2214": "sequenc", "2215": "prior", "2216": "fidel", "2217": "fundam", "2218": "ations.Ġ", "2219": "topo", "2220": ".ĠWeĠintroduceĠ", "2221": "deploymentĠ", "2222": "pop", "2223": "robustnessĠ", "2224": "f{", "2225": "ksĠ", "2226": "large-", "2227": "overĠtheĠ", "2228": "variantĠ", "2229": "check", "2230": "wer", "2231": "ts,Ġ", "2232": "conditionedĠ", "2233": "comparis", "2234": "tionĠofĠ", "2235": "projec", "2236": "machineĠlearningĠ", "2237": "sisĠ", "2238": "cir", "2239": "GaussianĠ", "2240": "expo", "2241": "En", "2242": "shar", "2243": "level", "2244": "concep", "2245": "findingsĠ", "2246": "significantlyĠ", "2247": "bit", "2248": "itu", "2249": "leng", "2250": "techniqu", "2251": "ingĠtoĠ", "2252": "complement", "2253": "distinc", "2254": "CI", "2255": "data,Ġ", "2256": "emerg", "2257": "providesĠ", "2258": "captureĠ", "2259": "convergenceĠ", "2260": "towardĠ", "2261": "7Ġ", "2262": "marg", "2263": "distribution", "2264": "0.8", "2265": "expertĠ", "2266": "edĠbyĠtheĠ", "2267": "miti", "2268": "afterĠ", "2269": "effectiv", "2270": "backĠ", "2271": "hard", "2272": "seriesĠ", "2273": "characteriz", "2274": "beforeĠ", "2275": "hierarch", "2276": "e.", "2277": "\\%", "2278": "arialĠ", "2279": "produceĠ", "2280": "ship", "2281": "throughĠaĠ", "2282": "hyper", "2283": "entrop", "2284": "stageĠ", "2285": "capac", "2286": "providesĠaĠ", "2287": "unifiedĠ", "2288": "individ", "2289": "cach", "2290": "allow", "2291": "detect", "2292": "performĠ", "2293": "open-", "2294": "tivityĠ", "2295": "flow", "2296": "inĠwhichĠ", "2297": "bat", "2298": "es:Ġ", "2299": "cannotĠ", "2300": "developĠ", "2301": "CA", "2302": "esti", "2303": "orig", "2304": "termĠ", "2305": "lif", "2306": "offer", "2307": "ally,ĠweĠ", "2308": "gram", "2309": "flowĠ", "2310": "interpretableĠ", "2311": "safetyĠ", "2312": "geometricĠ", "2313": "hid", "2314": "reduceĠ", "2315": "leav", "2316": "investi", "2317": "Ben", "2318": "forecastingĠ", "2319": "asĠanĠ", "2320": "recentĠ", "2321": "complexityĠ", "2322": "derivedĠ", "2323": "VĠ", "2324": "sequenceĠ", "2325": "textĠ", "2326": "time-", "2327": "calibrationĠ", "2328": "PI", "2329": "sta", "2330": "prog", "2331": "horizonĠ", "2332": "s.ĠOurĠ", "2333": "an-", "2334": "sor", "2335": "ibleĠ", "2336": "addressĠthisĠ", "2337": "ulationĠ", "2338": "where", "2339": "learning", "2340": "probabilityĠ", "2341": "futureĠ", "2342": "refin", "2343": "additionalĠ", "2344": "candidateĠ", "2345": "zero-", "2346": "paper,ĠweĠ", "2347": "incorpor", "2348": "itherĠ", "2349": "atesĠtheĠ", "2350": "scenario", "2351": "St", "2352": "exac", "2353": "ense", "2354": "beyondĠ", "2355": "whatĠ", "2356": "accel", "2357": "examp", "2358": "reveal", "2359": "rac", "2360": "pati", "2361": "labelĠ", "2362": "encoder", "2363": "dev", "2364": "alloc", "2365": "relevantĠ", "2366": "5%Ġ", "2367": "arti", "2368": "ExperimentsĠonĠ", "2369": "6.", "2370": "vide", "2371": "learnĠ", "2372": "baselinesĠ", "2373": "maticallyĠ", "2374": "replac", "2375": "7.", "2376": "meĠ", "2377": "son", "2378": "trajectoryĠ", "2379": "e,ĠweĠ", "2380": "collec", "2381": "propag", "2382": "9Ġ", "2383": "alle", "2384": "tillĠ", "2385": "budgetĠ", "2386": "od", "2387": "GR", "2388": "itlyĠ", "2389": "),ĠandĠ", "2390": "suffici", "2391": "la", "2392": "rele", "2393": "ativ", "2394": "equi", "2395": "betterĠ", "2396": "benchmarksĠ", "2397": "aĠsingleĠ", "2398": "setĠofĠ", "2399": "jointĠ", "2400": "intern", "2401": "argeĠ", "2402": "s,ĠwhileĠ", "2403": "model'sĠ", "2404": "reproduc", "2405": "dynamicsĠ", "2406": "requireĠ", "2407": "denĠ", "2408": "thoughĠ", "2409": "edĠinĠ", "2410": ",ĠbutĠ", "2411": "-S", "2412": ":ĠtheĠ", "2413": "earchĠ", "2414": "bf{", "2415": "ationsĠandĠ", "2416": "certi", "2417": "red", "2418": "isĠnotĠ", "2419": "wellĠ", "2420": "times", "2421": "lightweightĠ", "2422": "directĠ", "2423": "Mul", "2424": "go", "2425": "htĠ", "2426": "solu", "2427": "confir", "2428": "ederatedĠ", "2429": "ablyĠ", "2430": "whenĠtheĠ", "2431": "NNĠ", "2432": "generalizationĠ", "2433": "oldĠ", "2434": "e.\n\n", "2435": "lyingĠ", "2436": "offĠ", "2437": "properti", "2438": "cli", "2439": "),ĠwhichĠ", "2440": "maxim", "2441": "close", "2442": "202", "2443": "Qwen", "2444": "jointlyĠ", "2445": "progres", "2446": "reteĠ", "2447": "l-", "2448": "tĠofĠ", "2449": "vision", "2450": "Comp", "2451": ".ĠĠĠ", "2452": "ilyĠ", "2453": "(LLM", "2454": "modal", "2455": "urther", "2456": "leverag", "2457": "org", "2458": "atingĠtheĠ", "2459": "\\math", "2460": "reconstructionĠ", "2461": "asy", "2462": "encoderĠ", "2463": "volu", "2464": "similar", "2465": "frozenĠ", "2466": "strategyĠ", "2467": "score", "2468": "Res", "2469": "aim", "2470": "ectedĠ", "2471": "monit", "2472": "solutionĠ", "2473": "OĠ", "2474": "adversarialĠ", "2475": "identifi", "2476": "statisticalĠ", "2477": "sourc", "2478": "verifi", "2479": "finite-", "2480": "age-", "2481": "robo", "2482": "naturalĠ", "2483": "term", "2484": "scalingĠ", "2485": "fron", "2486": "inher", "2487": "pipelineĠ", "2488": "9.", "2489": "ins", "2490": "ix", "2491": "econ", "2492": "annot", "2493": "hardw", "2494": "estimationĠ", "2495": "attribut", "2496": "shouldĠ", "2497": "real", "2498": "simpleĠ", "2499": "ttlen", "2500": "Baye", "2501": "complementaryĠ", "2502": "availableĠatĠ", "2503": "C-", "2504": "teacherĠ", "2505": "Ac", "2506": "providingĠ", "2507": "weightsĠ", "2508": "\\text", "2509": "large-scaleĠ", "2510": "Bo", "2511": "ies,Ġ", "2512": "Exten", "2513": "operator", "2514": "bio", "2515": "respec", "2516": "conven", "2517": "underlyingĠ", "2518": "kedĠ", "2519": "ardsĠ", "2520": "gain", "2521": "deriveĠ", "2522": "magn", "2523": "confidenceĠ", "2524": "FĠ", "2525": "adaptationĠ", "2526": "trade-", "2527": "becauseĠ", "2528": "er,Ġ", "2529": "fea", "2530": "tasks,Ġ", "2531": "gni", "2532": "regressionĠ", "2533": "DA", "2534": "ono", "2535": "pretrainedĠ", "2536": "potentialĠ", "2537": "stillĠ", "2538": "gre", "2539": "moder", "2540": "jud", "2541": "improvingĠ", "2542": "fieldĠ", "2543": "tion,ĠandĠ", "2544": "lik", "2545": "challengingĠ", "2546": "LargeĠ", "2547": "BayesianĠ", "2548": "consi", "2549": "analyz", "2550": "doĠnotĠ", "2551": "^2", "2552": "training,Ġ", "2553": "biasĠ", "2554": "centralĠ", "2555": "NeuralĠ", "2556": "noi", "2557": "upĠ", "2558": "_{", "2559": "ingu", "2560": "esĠ(", "2561": "0%Ġ", "2562": "drif", "2563": "magnitu", "2564": "shor", "2565": ".ĠHowever,Ġ", "2566": "repe", "2567": "severalĠ", "2568": "effectiven", "2569": "8.", "2570": "contribu", "2571": "showĠthatĠtheĠ", "2572": "UnderĠ", "2573": "Multi", "2574": "thre", "2575": "more", "2576": "wereĠ", "2577": "post", "2578": "ation.\n\n", "2579": "seenĠ", "2580": "trajectoriesĠ", "2581": "EE", "2582": "dra", "2583": "ers,Ġ", "2584": "ingĠthatĠ", "2585": "edĠwithĠ", "2586": "usingĠaĠ", "2587": "introduceĠaĠ", "2588": "MI", "2589": "illĠ", "2590": "generateĠ", "2591": "bridĠ", "2592": "remov", "2593": "sched", "2594": "Tra", "2595": "istic", "2596": "tsĠtheĠ", "2597": "0.7", "2598": "whereĠtheĠ", "2599": "observedĠ", "2600": "bottlen", "2601": "eredĠ", "2602": "def", "2603": "promis", "2604": "correctĠ", "2605": "correspon", "2606": "-awareĠ", "2607": "isol", "2608": "connec", "2609": "Op", "2610": "LA", "2611": "elec", "2612": "through", "2613": "heal", "2614": "00Ġ", "2615": "cumul", "2616": "validationĠ", "2617": "features", "2618": "PA", "2619": "esĠwithĠ", "2620": "idat", "2621": "top", "2622": "underĠaĠ", "2623": "improvem", "2624": "s;Ġ", "2625": "view", "2626": "guidedĠ", "2627": "Diff", "2628": "matchĠ", "2629": "reducingĠ", "2630": "s.ĠHowever,Ġ", "2631": "embeddingĠ", "2632": "retrievalĠ", "2633": "viewĠ", "2634": "ER", "2635": "rati", "2636": "conc", "2637": "ents,Ġ", "2638": "gover", "2639": "distinctĠ", "2640": "ExtensiveĠ", "2641": "interactionĠ", "2642": "MS", "2643": "generalĠ", "2644": "small", "2645": "circu", "2646": "track", "2647": "extern", "2648": "numericalĠ", "2649": "ov", "2650": "sorĠ", "2651": "sĠacrossĠ", "2652": "achievingĠ", "2653": "matchingĠ", "2654": "deployment", "2655": "shap", "2656": "positiveĠ", "2657": "able,Ġ", "2658": "updateĠ", "2659": "re-", "2660": "ability,Ġ", "2661": "sugg", "2662": "Vi", "2663": "utĠ", "2664": "baseĠ", "2665": "provideĠaĠ", "2666": "decomposi", "2667": "implic", "2668": "Qu", "2669": "endsĠ", "2670": "conv", "2671": "forwardĠ", "2672": "staticĠ", "2673": "researchĠ", "2674": "load", "2675": "commonĠ", "2676": "fundamentalĠ", "2677": "uchĠ", "2678": "treat", "2679": "deterministicĠ", "2680": "histor", "2681": "full-", "2682": ",ĠanĠ", "2683": "oci", "2684": "highlyĠ", "2685": "effectivelyĠ", "2686": "successĠ", "2687": "ation.ĠWeĠ", "2688": "TS", "2689": ":ĠaĠ", "2690": "rup", "2691": "hand", "2692": "completeĠ", "2693": "fidelityĠ", "2694": "ure-", "2695": "Langu", "2696": "require", "2697": "counter", "2698": "compactĠ", "2699": "restric", "2700": "suggestĠ", "2701": "sym", "2702": "comesĠ", "2703": "predictionsĠ", "2704": "persist", "2705": "channelĠ", "2706": "urthermore", "2707": "To", "2708": "orac", "2709": "tab", "2710": "aud", "2711": "coverageĠ", "2712": "architecturesĠ", "2713": "capabiliti", "2714": "near-", "2715": "byĠtheĠ", "2716": "tail", "2717": "le,Ġ", "2718": "previ", "2719": "denseĠ", "2720": "explicitlyĠ", "2721": "assess", "2722": "fine-tuningĠ", "2723": "dueĠtoĠ", "2724": "3-", "2725": "vesĠ", "2726": "intoĠtheĠ", "2727": "s.ĠTheseĠ", "2728": "operatorĠ", "2729": "es.ĠTheĠ", "2730": "sive", "2731": "poly", "2732": "urallyĠ", "2733": "answerĠ", "2734": "ner", "2735": "sty", "2736": "L)Ġ", "2737": "nonlinearĠ", "2738": "akĠ", "2739": "improvedĠ", "2740": "alongĠ", "2741": "responseĠ", "2742": "fixed-", "2743": "caseĠ", "2744": "loopĠ", "2745": "appli", "2746": "boundaryĠ", "2747": "pipelin", "2748": "whereasĠ", "2749": "acceler", "2750": "monitor", "2751": "(D", "2752": "stor", "2753": "sit", "2754": "sil", "2755": "proced", "2756": "segment", "2757": "individualĠ", "2758": "OP", "2759": "avo", "2760": "categ", "2761": "associ", "2762": ",ĠandĠtheĠ", "2763": "\\%Ġ", "2764": "explan", "2765": "advanc", "2766": "toolĠ", "2767": "edgeĠ", "2768": "particularlyĠ", "2769": "originalĠ", "2770": "eitherĠ", "2771": "t{", "2772": "formalĠ", "2773": "strongestĠ", "2774": "thi", "2775": "st,Ġ", "2776": "s.ĠS", "2777": "sixĠ", "2778": "efficienc", "2779": "samplesĠ", "2780": "gainsĠ", "2781": "findĠthatĠ", "2782": "hiddenĠ", "2783": "code", "2784": "distribut", "2785": "principl", "2786": "cy", "2787": "tis", "2788": "fit", "2789": "anom", "2790": "dependenc", "2791": "$\\math", "2792": "geometryĠ", "2793": "reflec", "2794": "hybridĠ", "2795": "plac", "2796": "largelyĠ", "2797": "combinesĠ", "2798": "degrad", "2799": "s.ĠInĠthisĠ", "2800": "thereforeĠ", "2801": "paradigmĠ", "2802": "organ", "2803": "posteri", "2804": "recor", "2805": "statesĠ", "2806": "InĠthisĠ", "2807": ".ĠForĠ", "2808": "nois", "2809": "pathĠ", "2810": "}$Ġ", "2811": "manif", "2812": "higherĠ", "2813": "promisingĠ", "2814": "govern", "2815": "tan", "2816": "sĠbyĠ", "2817": "computation", "2818": "linear", "2819": "uteĠ", "2820": "scalableĠ", "2821": "accurateĠ", "2822": "fast", "2823": "neuralĠnetworkĠ", "2824": "held-", "2825": "matrixĠ", "2826": "person", "2827": "internalĠ", "2828": "KĠ", "2829": "tionĠandĠ", "2830": "userĠ", "2831": "pool", "2832": "plat", "2833": "prediction", "2834": "assign", "2835": "ainedĠ", "2836": "wayĠ", "2837": "requiringĠ", "2838": "anomal", "2839": "activeĠ", "2840": ".\n\nWeĠ", "2841": "construct", "2842": "widelyĠ", "2843": "tĠaĠ", "2844": "chem", "2845": "mathe", "2846": "y.ĠWeĠ", "2847": "consistencyĠ", "2848": "OurĠ", "2849": "boundedĠ", "2850": "faul", "2851": "kernelĠ", "2852": "medic", "2853": "substantialĠ", "2854": "5-", "2855": "issu", "2856": "practic", "2857": "labeledĠ", "2858": "molecularĠ", "2859": "enhanc", "2860": "(2", "2861": "tableĠ", "2862": "program", "2863": "cr", "2864": "iĠ", "2865": "ownĠ", "2866": "usedĠtoĠ", "2867": "serveĠ", "2868": "convex", "2869": ",ĠwithĠ", "2870": "entif", "2871": "embedding", "2872": "promptĠ", "2873": "Gen", "2874": "relatedĠ", "2875": "end-to-", "2876": "influ", "2877": "ationĠisĠ", "2878": "stag", "2879": "suit", "2880": "EC", "2881": "loo", "2882": "squ", "2883": "decision-", "2884": "conventionalĠ", "2885": "contr", "2886": "theĠsameĠ", "2887": "utilityĠ", "2888": "privacyĠ", "2889": "eroĠ", "2890": "s.ĠB", "2891": "finalĠ", "2892": "relation", "2893": "retur", "2894": "expon", "2895": "3DĠ", "2896": "LanguageĠ", "2897": "ois", "2898": "sequentialĠ", "2899": "exhibitĠ", "2900": "surrogateĠ", "2901": "B-", "2902": "12", "2903": "D)Ġ", "2904": "insig", "2905": "s,ĠwhichĠ", "2906": "groupĠ", "2907": "publicĠ", "2908": "se,Ġ", "2909": "sureĠ", "2910": "theoryĠ", "2911": "sensitiveĠ", "2912": "filter", "2913": "NI", "2914": "verif", "2915": "ationsĠofĠ", "2916": "challengeĠ", "2917": "scoresĠ", "2918": "high-dimensionalĠ", "2919": "held-outĠ", "2920": "1-", "2921": "accoun", "2922": "deepĠlearningĠ", "2923": "ensemb", "2924": "h{", "2925": "SS", "2926": "forĠaĠ", "2927": "i)Ġ", "2928": "ream", "2929": "sample", "2930": "s,ĠbutĠ", "2931": "independ", "2932": "\\emp", "2933": "spanningĠ", "2934": "\\emph{", "2935": ".ĠThisĠpaperĠ", "2936": "audit", "2937": "rap", "2938": "openĠ", "2939": "s),Ġ", "2940": "selectedĠ", "2941": "importantĠ", "2942": "standingĠ", "2943": "measurement", "2944": "givenĠ", "2945": "availableĠatĠhttps://github.com/", "2946": "validat", "2947": "bleĠ", "2948": "ableĠtoĠ", "2949": "ance,Ġ", "2950": "rank", "2951": "becomeĠ", "2952": "TransformerĠ", "2953": "externalĠ", "2954": "measureĠ", "2955": "hierarchicalĠ", "2956": "action", "2957": "sof", "2958": "gri", "2959": "parametersĠ", "2960": "transformerĠ", "2961": "random", "2962": "distingu", "2963": "mode", "2964": "curr", "2965": "architecture", "2966": "percep", "2967": "schem", "2968": "capacityĠ", "2969": "setsĠ", "2970": "NetĠ", "2971": "and-", "2972": "powerĠ", "2973": "queryĠ", "2974": "largeĠlanguageĠmodelsĠ", "2975": "communicationĠ", "2976": "LI", "2977": "ianĠ", "2978": "intr", "2979": "stabilityĠ", "2980": "offlineĠ", "2981": "entropyĠ", "2982": "effectivenessĠ", "2983": "ignĠ", "2984": "depthĠ", "2985": "usion", "2986": "autom", "2987": "steadĠ", "2988": "agen", "2989": "itĠisĠ", "2990": "bran", "2991": "lackĠ", "2992": "compressionĠ", "2993": "maintainingĠ", "2994": "rollout", "2995": "discreteĠ", "2996": "(P", "2997": "eĠandĠ", "2998": "E)Ġ", "2999": "gest", "3000": "end-to-endĠ", "3001": "zeroĠ", "3002": "16", "3003": "row", "3004": ";ĠandĠ", "3005": "closed-", "3006": "fronti", "3007": "unseenĠ", "3008": "(T", "3009": "edĠandĠ", "3010": "rig", "3011": "mut", "3012": "enableĠ", "3013": "0.6", "3014": "languageĠmodelĠ", "3015": "feedbackĠ", "3016": "\"Ġ", "3017": "(F", "3018": "'Ġ", "3019": "ditionĠ", "3020": "alis", "3021": "bitĠ", "3022": "rimin", "3023": "estimatesĠ", "3024": "function", "3025": "correct", "3026": "finiteĠ", "3027": "discrimin", "3028": "adj", "3029": "antsĠ", "3030": "well", "3031": "makeĠ", "3032": "comparedĠtoĠ", "3033": "resourc", "3034": "entificĠ", "3035": "revealĠ", "3036": "protocol", "3037": "smooth", "3038": "RecentĠ", "3039": "advantageĠ", "3040": "ightĠ", "3041": "arilyĠ", "3042": "differenti", "3043": "strategiesĠ", "3044": "mitig", "3045": "br", "3046": "prox", "3047": "atĠaĠ", "3048": "motionĠ", "3049": ",ĠandĠaĠ", "3050": "fyingĠ", "3051": "behavioralĠ", "3052": "attackĠ", "3053": "ExtensiveĠexperimentsĠ", "3054": "dependsĠ", "3055": "ai", "3056": "latencyĠ", "3057": "executionĠ", "3058": "esĠonĠ", "3059": "model,Ġ", "3060": "$ĠandĠ", "3061": "probabil", "3062": "rawĠ", "3063": "supervisionĠ", "3064": "mic", "3065": "onalĠ", "3066": "modi", "3067": "agent", "3068": "agre", "3069": "susĠ", "3070": "thoseĠ", "3071": "approximationĠ", "3072": "statistic", "3073": "mediateĠ", "3074": "edĠonĠ", "3075": "y.\n\n", "3076": "constan", "3077": "abilityĠtoĠ", "3078": "weightedĠ", "3079": "concentr", "3080": "follow", "3081": "var", "3082": "motiv", "3083": "precisionĠ", "3084": "\\textbf{", "3085": "tane", "3086": ".ĠE", "3087": "bra", "3088": "regre", "3089": "e.ĠTheĠ", "3090": "accuracy,Ġ", "3091": "longĠ", "3092": "hypo", "3093": "relationship", "3094": "ine-", "3095": "presentsĠ", "3096": "learning,Ġ", "3097": "reliabilityĠ", "3098": "calibratedĠ", "3099": "componentĠ", "3100": "forma", "3101": "largerĠ", "3102": "edĠbyĠaĠ", "3103": "effectĠ", "3104": "POĠ", "3105": "VLM", "3106": "toge", "3107": "showsĠthatĠ", "3108": "whileĠpreservingĠ", "3109": "systematicĠ", "3110": "agenticĠ", "3111": "Pre", "3112": "alo", "3113": "izeĠ", "3114": "es,ĠweĠ", "3115": "0.5", "3116": "commend", "3117": "success", "3118": "maj", "3119": "neigh", "3120": "e:Ġ", "3121": "binaryĠ", "3122": "e.g", "3123": "(\\", "3124": "achievedĠ", "3125": "paralle", "3126": "GA", "3127": "fal", "3128": "e-basedĠ", "3129": "resultĠ", "3130": "studentĠ", "3131": "decompo", "3132": "pointsĠ", "3133": "riteri", "3134": "zero-shotĠ", "3135": "Al", "3136": "station", "3137": "asi", "3138": "compareĠ", "3139": "tivel", "3140": "distributionsĠ", "3141": "improvementĠ", "3142": "trainedĠonĠ", "3143": "routingĠ", "3144": "descrip", "3145": "categor", "3146": "venĠ", "3147": "typeĠ", "3148": "benchmarks,Ġ", "3149": "transp", "3150": "questionĠ", "3151": "familyĠ", "3152": "tabularĠ", "3153": "scientificĠ", "3154": "E-", "3155": "DP", "3156": "colĠ", "3157": "itself", "3158": "sibilityĠ", "3159": "usefulĠ", "3160": "hoodĠ", "3161": "videoĠ", "3162": "CP", "3163": ".,Ġ", "3164": "ust", "3165": "radi", "3166": "choic", "3167": "resolutionĠ", "3168": "onomo", "3169": "acqu", "3170": "Pol", "3171": "seed", "3172": "modelsĠareĠ", "3173": "task-", "3174": "s.ĠAĠ", "3175": "recoveryĠ", "3176": "averag", "3177": "pairedĠ", "3178": "federatedĠ", "3179": "everĠ", "3180": "coreĠ", "3181": "reductionĠ", "3182": "datasets,Ġ", "3183": "discre", "3184": "ruleĠ", "3185": "talĠ", "3186": "alignedĠ", "3187": "accessĠ", "3188": "highligh", "3189": ".ĠInĠthisĠwork,ĠweĠ", "3190": "styleĠ", "3191": "distributedĠ", "3192": "atedĠbyĠ", "3193": "argu", "3194": "architecturalĠ", "3195": "architectures", "3196": "mixt", "3197": "cacheĠ", "3198": "investigateĠ", "3199": "Ro", "3200": "Ch", "3201": "Mar", "3202": "las", "3203": "entiallyĠ", "3204": "predictedĠ", "3205": "studiesĠ", "3206": "(A", "3207": "tro", "3208": "tĠandĠ", "3209": "valĠ", "3210": "settingĠ", "3211": "similarityĠ", "3212": "modernĠ", "3213": "mathema", "3214": "recommend", "3215": "(L", "3216": "cat", "3217": "ratesĠ", "3218": "way", "3219": "essentialĠ", "3220": "withinĠaĠ", "3221": "kernel", "3222": "stream", "3223": "criteri", "3224": "Me", "3225": "pur", "3226": "T)Ġ", "3227": "boxĠ", "3228": ".ĠWeĠproposeĠ", "3229": "RAĠ", "3230": "presentĠaĠ", "3231": "wa", "3232": ",ĠweĠproposeĠ", "3233": "readyĠ", "3234": "negativeĠ", "3235": "arm", "3236": "rever", "3237": "engine", "3238": "UsingĠ", "3239": "uniformĠ", "3240": "computationallyĠ", "3241": "a-", "3242": "%,Ġ", "3243": "eckĠ", "3244": "ellig", "3245": "brea", "3246": "alternativeĠ", "3247": "protocolĠ", "3248": "erveĠ", "3249": "With", "3250": "esĠfromĠ", "3251": "functionalĠ", "3252": "materi", "3253": "measuredĠ", "3254": "reachesĠ", "3255": "reh", "3256": "izingĠ", "3257": "iden", "3258": "proces", "3259": "rankingĠ", "3260": "layer", "3261": "mapp", "3262": "makesĠ", "3263": "magnitudeĠ", "3264": "RI", "3265": "traff", "3266": "nodeĠ", "3267": "gainĠ", "3268": "backbon", "3269": "flex", "3270": "releas", "3271": "suggestĠthatĠ", "3272": "($", "3273": "anch", "3274": "directionĠ", "3275": "aloneĠ", "3276": "separateĠ", "3277": "activationĠ", "3278": "densityĠ", "3279": "frequencyĠ", "3280": "(N", "3281": "sĠcanĠ", "3282": "reward", "3283": "exactlyĠ", "3284": "improvementsĠ", "3285": "FM", "3286": "leg", "3287": ".ĠAl", "3288": "prun", "3289": "ard-", "3290": "fair", "3291": "exce", "3292": "sufficientĠ", "3293": "\\times", "3294": "LanguageĠModel", "3295": "vedĠ", "3296": "pos", "3297": "get", "3298": "quad", "3299": "amb", "3300": "manip", "3301": "superi", "3302": "earlyĠ", "3303": "call", "3304": "olicĠ", "3305": "knowledg", "3306": "diagnosticĠ", "3307": "arbit", "3308": "equival", "3309": "realisticĠ", "3310": "Optim", "3311": "medicalĠ", "3312": "CO", "3313": "me-", "3314": "withĠanĠ", "3315": "ement", "3316": "adop", "3317": "runĠ", "3318": "importanceĠ", "3319": "vectorĠ", "3320": "satis", "3321": "insteadĠ", "3322": "ID", "3323": "stri", "3324": "obt", "3325": "demonstrateĠtheĠ", "3326": "decodingĠ", "3327": "environmentĠ", "3328": "likeli", "3329": "AP", "3330": "sug", "3331": "yieldingĠ", "3332": "classific", "3333": "execut", "3334": "sivelyĠ", "3335": "neur", "3336": "computationĠ", "3337": "plann", "3338": "turn", "3339": "experimentalĠ", "3340": "uro", "3341": "lesĠ", "3342": "contra", "3343": "alizeĠ", "3344": "functionsĠ", "3345": "gradient", "3346": "performance,Ġ", "3347": "vector", "3348": "well-", "3349": "informa", "3350": "alsĠ", "3351": "edg", "3352": "heur", "3353": "resultsĠshowĠthatĠ", "3354": "phaseĠ", "3355": "rule", "3356": "sw", "3357": "inde", "3358": "blockĠ", "3359": "backboneĠ", "3360": "broad", "3361": "intrins", "3362": "suggest", "3363": "boo", "3364": "integratesĠ", "3365": "regressiveĠ", "3366": "discoveryĠ", "3367": "edĠasĠaĠ", "3368": "remainingĠ", "3369": "supportsĠ", "3370": "instanc", "3371": "lengthĠ", "3372": "sensitivityĠ", "3373": "regretĠ", "3374": "indĠ", "3375": "hardĠ", "3376": "throughĠtheĠ", "3377": ".ĠByĠ", "3378": "peci", "3379": "necess", "3380": "autonomo", "3381": "VA", "3382": "U-", "3383": "astiveĠ", "3384": "ing.\n\n", "3385": "phen", "3386": "baseline", "3387": "baselines,Ġ", "3388": "partialĠ", "3389": "rolloutĠ", "3390": "convexĠ", "3391": "model-", "3392": "prev", "3393": "them", "3394": "need", "3395": "ity,ĠandĠ", "3396": "changeĠ", "3397": "factorĠ", "3398": "modaliti", "3399": "muchĠ", "3400": "noisyĠ", "3401": "varyingĠ", "3402": "arbitr", "3403": "lingĠ", "3404": "0.1", "3405": "atoryĠ", "3406": "ourĠmethodĠ", "3407": "cell", "3408": "speed", "3409": "approximatelyĠ", "3410": "GraphĠ", "3411": "artifac", "3412": "probabilisticĠ", "3413": "depth", "3414": "ation.ĠTheĠ", "3415": "componentsĠ", "3416": "therebyĠ", "3417": "inverseĠ", "3418": "correspondingĠ", "3419": "preserveĠ", "3420": "ated", "3421": "requiredĠ", "3422": "devic", "3423": "intermediateĠ", "3424": "io", "3425": "Wor", "3426": "Aut", "3427": "ate-", "3428": "ugg", "3429": "actionsĠ", "3430": "betweenĠtheĠ", "3431": "transitionĠ", "3432": "power", "3433": "(R", "3434": "earch", "3435": "streng", "3436": "0.00", "3437": "attribu", "3438": "comparison", "3439": "ulner", "3440": "dr", "3441": "-F", "3442": "icialĠ", "3443": "overallĠ", "3444": "observationsĠ", "3445": "layersĠ", "3446": "nomi", "3447": "inducedĠ", "3448": "pecific", "3449": "experiment", "3450": "builtĠ", "3451": "accumul", "3452": "cĠ", "3453": "OD", "3454": "underĠtheĠ", "3455": "temper", "3456": "keep", "3457": "introducesĠ", "3458": "propertyĠ", "3459": "avoid", "3460": "tex", "3461": "informedĠ", "3462": "percent", "3463": "policiesĠ", "3464": "volutionalĠ", "3465": "vulner", "3466": "An", "3467": "alon", "3468": "conduc", "3469": "representativeĠ", "3470": "chron", "3471": "ativelyĠ", "3472": "addressĠtheseĠ", "3473": "posteriorĠ", "3474": "conditionĠ", "3475": "trainĠ", "3476": "rece", "3477": "%ĠofĠ", "3478": "explain", "3479": "omeĠ", "3480": "survi", "3481": "signalsĠ", "3482": "applicationsĠ", "3483": "sti", "3484": "che", "3485": "R)Ġ", "3486": "poseĠ", "3487": "instruc", "3488": "stabil", "3489": "trainingĠandĠ", "3490": "lementĠ", "3491": "injec", "3492": "capabilityĠ", "3493": "compati", "3494": "first-", "3495": "fusionĠ", "3496": "weak", "3497": "mapĠ", "3498": ".ĠItĠ", "3499": "expectedĠ", "3500": "this,ĠweĠ", "3501": "simultane", "3502": "co-", "3503": "ectĠ", "3504": "mpto", "3505": "prim", "3506": "space,Ġ", "3507": "FTĠ", "3508": "methods,Ġ", "3509": "soci", "3510": "out-of-", "3511": "thresholdĠ", "3512": "factualĠ", "3513": "developĠaĠ", "3514": "togetherĠ", "3515": "We", "3516": "isĠtoĠ", "3517": "modelsĠandĠ", "3518": "endedĠ", "3519": "maryĠ", "3520": "operationalĠ", "3521": "estimator", "3522": "dimensionĠ", "3523": "offerĠ", "3524": "however,Ġ", "3525": "shiftĠ", "3526": "groundedĠ", "3527": "ovĠ", "3528": "principledĠ", "3529": "LoRAĠ", "3530": "scalarĠ", "3531": "acrossĠallĠ", "3532": "differenc", "3533": "simulationĠ", "3534": "training.Ġ", "3535": "ReinforcementĠ", "3536": "reportedĠ", "3537": "candidat", "3538": "systematicallyĠ", "3539": "automatedĠ", "3540": "neighb", "3541": "IC", "3542": "30", "3543": "flo", "3544": "pairĠ", "3545": "operatingĠ", "3546": "capturesĠ", "3547": "LearningĠ(", "3548": "distillationĠ", "3549": "polynomi", "3550": "2-", "3551": "SM", "3552": "Ran", "3553": "that", "3554": "coar", "3555": "demonstratingĠ", "3556": "proposesĠ", "3557": "focu", "3558": "diagno", "3559": "(RL", "3560": "oracleĠ", "3561": "denois", "3562": "ly", "3563": "foc", "3564": "computeĠ", "3565": "MLĠ", "3566": "updatesĠ", "3567": "alreadyĠ", "3568": ".ĠC", "3569": "evaluationsĠ", "3570": "accuracyĠandĠ", "3571": "preservesĠ", "3572": "WhenĠ", "3573": "traditionalĠ", "3574": "ensembleĠ", "3575": "understandingĠ", "3576": "4-", "3577": "sat", "3578": "isĠanĠ", "3579": "fitĠ", "3580": "phas", "3581": "atom", "3582": "band", "3583": "public", "3584": "channel", "3585": "expensiveĠ", "3586": "deli", "3587": ",ĠorĠ", "3588": "ForĠ", "3589": "timesĠ", "3590": "distanceĠ", "3591": "transl", "3592": "modul", "3593": "estimateĠ", "3594": "coher", "3595": "horizon", "3596": "GPUĠ", "3597": "resourceĠ", "3598": "consider", "3599": "e.g.,Ġ", "3600": "Po", "3601": "contentĠ", "3602": "curv", "3603": "structuresĠ", "3604": ",ĠwhereĠ", "3605": "fewerĠ", "3606": "respectivel", "3607": "manĠ", "3608": "freeĠ", "3609": "reover", "3610": "er'sĠ", "3611": "readĠ", "3612": "measuresĠ", "3613": "symb", "3614": "fasterĠ", "3615": "Moreover", "3616": "metryĠ", "3617": "search", "3618": ";ĠtheĠ", "3619": "differentialĠ", "3620": "sĠsuchĠasĠ", "3621": "strongerĠ", "3622": "balanceĠ", "3623": "validĠ", "3624": "rangeĠofĠ", "3625": "comparisonĠ", "3626": "schedul", "3627": "associatedĠ", "3628": "dem", "3629": "eĠthatĠ", "3630": "insp", "3631": "viol", "3632": "y,ĠweĠ", "3633": "perspec", "3634": "100", "3635": "enforc", "3636": "GPT-", "3637": "rewardsĠ", "3638": "frontierĠ", "3639": "variantsĠ", "3640": "especi", "3641": "PE", "3642": "25", "3643": "Dis", "3644": "toĠbeĠ", "3645": "increasingĠ", "3646": "GNN", "3647": "residu", "3648": "component", "3649": "physics-", "3650": "confirm", "3651": "Mark", "3652": "especiallyĠ", "3653": "IN", "3654": "TA", "3655": "uil", "3656": "rais", "3657": "S)Ġ", "3658": "variousĠ", "3659": "correctionĠ", "3660": "monot", "3661": "evidenc", "3662": "trigg", "3663": "autoregressiveĠ", "3664": "fre", "3665": "estimatorĠ", "3666": "secondĠ", "3667": "paradigm", "3668": "collapseĠ", "3669": "Gener", "3670": "mathematicalĠ", "3671": "?Ġ", "3672": "SD", "3673": "(3", "3674": "thog", "3675": "overl", "3676": "limitation", "3677": "meaning", "3678": "sĠatĠ", "3679": "modalityĠ", "3680": "s.ĠOnĠ", "3681": "\\%$Ġ", "3682": "top-", "3683": "cut", "3684": "ies.Ġ", "3685": "real-timeĠ", "3686": "settings,Ġ", "3687": "similarĠ", "3688": "matric", "3689": "balancedĠ", "3690": "MC", "3691": "ution", "3692": "mac", "3693": "preferenceĠ", "3694": "confl", "3695": "trust", "3696": "Adap", "3697": "writ", "3698": "long-horizonĠ", "3699": "noise", "3700": "defen", "3701": "identicalĠ", "3702": "At", "3703": "S-", "3704": "FP", "3705": "sĠisĠ", "3706": "ThisĠ", "3707": "sĠofĠtheĠ", "3708": "failĠtoĠ", "3709": "belowĠ", "3710": "y-awareĠ", "3711": "theĠfirstĠ", "3712": "processingĠ", "3713": "intellig", "3714": "rot", "3715": "dise", "3716": "eventĠ", "3717": "methodo", "3718": "sion,Ġ", "3719": "usingĠtheĠ", "3720": "LLM-", "3721": "trueĠ", "3722": "agnostic", "3723": "insigh", "3724": "itingĠ", "3725": "Des", "3726": "varianc", "3727": "withinĠtheĠ", "3728": "producesĠ", "3729": "constraintĠ", "3730": "faith", "3731": "performance.Ġ", "3732": "block", "3733": "recoverĠ", "3734": "length", "3735": "trafficĠ", "3736": "intrinsicĠ", "3737": "i.", "3738": "cop", "3739": "imin", "3740": "mpir", "3741": "modeĠ", "3742": "0.4", "3743": "pretrainingĠ", "3744": "variabl", "3745": ",ĠweĠintroduceĠ", "3746": "other", "3747": "applyĠ", "3748": "extendĠ", "3749": "penal", "3750": "frac", "3751": "hardwareĠ", "3752": "s.ĠE", "3753": "common", "3754": "manag", "3755": "employ", "3756": "land", "3757": "stronglyĠ", "3758": "regulariz", "3759": "definedĠ", "3760": "recurrentĠ", "3761": "s)", "3762": "$O", "3763": "tiz", "3764": "suppres", "3765": "directionalĠ", "3766": "matchesĠ", "3767": "alignment", "3768": "yieldĠ", "3769": "clusteringĠ", "3770": "(LLMs)Ġ", "3771": "Boo", "3772": "recogni", "3773": "}$", "3774": "amin", "3775": "modelĠtoĠ", "3776": "tentionĠ", "3777": "extre", "3778": "leadĠ", "3779": "converg", "3780": "quantizationĠ", "3781": "askĠ", "3782": "enceĠofĠ", "3783": "maxĠ", "3784": "systems,Ġ", "3785": "merg", "3786": "comparableĠ", "3787": "widthĠ", "3788": "human-", "3789": "anomalyĠ", "3790": "rm", "3791": "RE", "3792": "pingĠ", "3793": "tiesĠ", "3794": "scar", "3795": "whileĠtheĠ", "3796": "bothĠtheĠ", "3797": ".ĠWeĠfurtherĠ", "3798": "Network", "3799": "leak", "3800": "ori", "3801": "hic", "3802": "arith", "3803": ",ĠourĠ", "3804": "generatingĠ", "3805": "LLMsĠ", "3806": "pass", "3807": "accep", "3808": "evolutionĠ", "3809": ".ĠExistingĠ", "3810": "window", "3811": "(1)Ġ", "3812": "benef", "3813": "compreh", "3814": "exceed", "3815": "subjec", "3816": "expan", "3817": "CodeĠ", "3818": "guidanceĠ", "3819": "post-trainingĠ", "3820": "robustnes", "3821": "Bench", "3822": "historicalĠ", "3823": "corrup", "3824": "(2)Ġ", "3825": "hypothe", "3826": "totalĠ", "3827": "hocĠ", "3828": "that,Ġ", "3829": "Ar", "3830": "ban", "3831": "veryĠ", "3832": "inceĠ", "3833": "7%Ġ", "3834": "representation", "3835": "law", "3836": "s.ĠAcrossĠ", "3837": "relativeĠtoĠ", "3838": "initialĠ", "3839": "KVĠ", "3840": "redund", "3841": "sq", "3842": "SO", "3843": "logĠ", "3844": "combiningĠ", "3845": "shownĠ", "3846": "semantic", "3847": "strictĠ", "3848": "invariantĠ", "3849": "batchĠ", "3850": "PC", "3851": "farĠ", "3852": "2%Ġ", "3853": "overĠaĠ", "3854": "weight", "3855": "risk", "3856": "dominantĠ", "3857": "aimĠ", "3858": "zĠ", "3859": "entedĠ", "3860": "umentĠ", "3861": "result", "3862": "expertsĠ", "3863": "cument", "3864": "closeĠ", "3865": "grainedĠ", "3866": "difficultĠtoĠ", "3867": "outperformĠ", "3868": "trade-offĠ", "3869": "decompositionĠ", "3870": "superiorĠ", "3871": "contrastiveĠ", "3872": "elimin", "3873": "rm{", "3874": "thatĠisĠ", "3875": "byĠaĠ", "3876": "ate,Ġ", "3877": "effectsĠ", "3878": "classesĠ", "3879": "languag", "3880": "limitingĠ", "3881": "impactĠ", "3882": "hasĠbeenĠ", "3883": "classifierĠ", "3884": "answer", "3885": "inally,ĠweĠ", "3886": "EM", "3887": "hal", "3888": "ormĠ", "3889": "sĠorĠ", "3890": "plan", "3891": "tsĠaĠ", "3892": "learnsĠ", "3893": "nativeĠ", "3894": "achievesĠtheĠ", "3895": "-timeĠ", "3896": "timeĠseriesĠ", "3897": "someĠ", "3898": "asympto", "3899": "sqr", "3900": "wr", "3901": "italĠ", "3902": "sonĠ", "3903": "%ĠandĠ", "3904": "appliesĠ", "3905": "oundĠ", "3906": "contribut", "3907": "byĠupĠtoĠ", "3908": "task-specificĠ", "3909": "low-rankĠ", "3910": "nar", "3911": "izesĠ", "3912": "predictĠ", "3913": "sĠwhileĠ", "3914": "observationĠ", "3915": "scoringĠ", "3916": "interpretabilityĠ", "3917": "augmentedĠ", "3918": "sensorĠ", "3919": "silon", "3920": "forget", "3921": "informativeĠ", "3922": "ityĠandĠ", "3923": "0.3", "3924": "6%Ġ", "3925": "secon", "3926": "minimalĠ", "3927": "pairwiseĠ", "3928": "surfaceĠ", "3929": "three-", "3930": "degradationĠ", "3931": "Per", "3932": "ancyĠ", "3933": "experi", "3934": "distributionalĠ", "3935": "specific", "3936": "applicationĠ", "3937": "theĠproposedĠ", "3938": "drop", "3939": "iterativeĠ", "3940": "normalizedĠ", "3941": "cleanĠ", "3942": "data-drivenĠ", "3943": "smoothĠ", "3944": "uildingĠ", "3945": "document", "3946": "pi", "3947": "Ra", "3948": "effect", "3949": "atesĠaĠ", "3950": "audi", "3951": "secur", "3952": "acrossĠmultipleĠ", "3953": "embeddingsĠ", "3954": "workflow", "3955": "R-", "3956": "Li", "3957": "(H", "3958": "tenĠ", "3959": ")ĠtoĠ", "3960": "fall", "3961": "inter-", "3962": "onlyĠtheĠ", "3963": "missingĠ", "3964": "parametricĠ", "3965": "instanti", "3966": "shift", "3967": "truthĠ", "3968": "reportĠ", "3969": "CIF", "3970": "soluteĠ", "3971": "faultĠ", "3972": "s,ĠaĠ", "3973": "queĠ", "3974": "inĠthisĠ", "3975": "entang", "3976": "yingĠtheĠ", "3977": "financ", "3978": "um-", "3979": "solv", "3980": "constructionĠ", "3981": "measurementĠ", "3982": "ologicalĠ", "3983": "indicateĠ", "3984": "ratioĠ", "3985": "chemicalĠ", "3986": "(B", "3987": "tleĠ", "3988": "Inter", "3989": "vare", "3990": "Experim", "3991": "rangeĠ", "3992": ".ĠInĠthisĠpaper,ĠweĠ", "3993": "solutionsĠ", "3994": "varep", "3995": "(G", "3996": "ingĠofĠ", "3997": "sĠasĠ", "3998": "scre", "3999": "ingĠfromĠ", "4000": "regul", "4001": "ness", "4002": "dynamicalĠ", "4003": "analysesĠ", "4004": "regularizationĠ", "4005": "consistentlyĠoutperformsĠ", "4006": "regimeĠ", "4007": "advantag", "4008": "stationaryĠ", "4009": "orthog", "4010": "wi", "4011": "poor", "4012": "fiesĠ", "4013": "orityĠ", "4014": "loop", "4015": "8%Ġ", "4016": "positionĠ", "4017": "settingsĠ", "4018": "univers", "4019": "formulationĠ", "4020": "aggregateĠ", "4021": "arri", "4022": "ature", "4023": "infra", "4024": "1%Ġ", "4025": "dynamicallyĠ", "4026": "regime", "4027": "ently,Ġ", "4028": "split", "4029": "verificationĠ", "4030": "versusĠ", "4031": "FT", "4032": "Mon", "4033": "rul", "4034": "usu", "4035": "highestĠ", "4036": "reducedĠ", "4037": "statisticallyĠ", "4038": "liter", "4039": "requirement", "4040": "transpor", "4041": "primarilyĠ", "4042": "SI", "4043": "Fed", "4044": ".\n\nS", "4045": "Mach", "4046": "dataĠandĠ", "4047": "methodĠthatĠ", "4048": "turnĠ", "4049": "algorithmsĠ", "4050": "overhead", "4051": "popul", "4052": "claim", "4053": "Multi-", "4054": "independentlyĠ", "4055": "Polic", "4056": "LargeĠLanguageĠModel", "4057": "quadra", "4058": "strugg", "4059": ".ĠH", "4060": "acrossĠtheĠ", "4061": "largestĠ", "4062": "omen", "4063": "identificationĠ", "4064": "homo", "4065": "changesĠ", "4066": "validateĠ", "4067": ".ĠWeĠpresentĠ", "4068": "severeĠ", "4069": "outcomeĠ", "4070": "codeĠisĠ", "4071": "auditĠ", "4072": "haveĠbeenĠ", "4073": "autonomousĠ", "4074": "CIFAR", "4075": "by", "4076": "itationĠ", "4077": "exc", "4078": "peri", "4079": "0.2", "4080": "indu", "4081": "s.ĠĠĠ", "4082": "recoversĠ", "4083": "familiesĠ", "4084": "conceptĠ", "4085": "bottleneck", "4086": "treatmentĠ", "4087": "vehic", "4088": "Car", "4089": "onicĠ", "4090": ",ĠitĠ", "4091": "e-timeĠ", "4092": "referenc", "4093": "explorationĠ", "4094": "topolog", "4095": "TT", "4096": "fram", "4097": "sufferĠ", "4098": "DeepĠ", "4099": "BenchĠ", "4100": "return", "4101": "convolutionalĠ", "4102": "ExperimentalĠ", "4103": "phenomen", "4104": "M-", "4105": "D-", "4106": "ifĠ", "4107": "recip", "4108": "s,ĠincludingĠ", "4109": "AUCĠ", "4110": "establishedĠ", "4111": "healthĠ", "4112": "research", "4113": "ME", "4114": "performsĠ", "4115": "answ", "4116": "directionsĠ", "4117": "fewĠ", "4118": "moreĠthanĠ", "4119": "short", "4120": "implicitĠ", "4121": "1,", "4122": "tig", "4123": "Mat", "4124": "anĠun", "4125": "ili", "4126": "adm", "4127": "outcom", "4128": "addition", "4129": "rigor", "4130": "groundĠ", "4131": "approximateĠ", "4132": "targetedĠ", "4133": "skill", "4134": "percentageĠ", "4135": "conflic", "4136": "varepsilon", "4137": "w-", "4138": "ryĠ", "4139": "roleĠ", "4140": "Pri", "4141": "al,ĠandĠ", "4142": "codingĠ", "4143": "4%Ġ", "4144": "marginalĠ", "4145": "Fo", "4146": "LL", "4147": "Ag", "4148": "star", "4149": "modelsĠtoĠ", "4150": ").ĠTheĠ", "4151": "notĠonlyĠ", "4152": "loadĠ", "4153": "developmentĠ", "4154": ".ĠWeĠevaluateĠ", "4155": "aggregationĠ", "4156": "trade-off", "4157": "repeatedĠ", "4158": "sevenĠ", "4159": "absoluteĠ", "4160": "harn", "4161": "tempor", "4162": "10Ġ", "4163": "predictor", "4164": "safeĠ", "4165": "choiceĠ", "4166": "projectionĠ", "4167": "asym", "4168": "bottleneckĠ", "4169": "diagnostic", "4170": "Desp", "4171": "On", "4172": "Ma", "4173": "evaluatingĠ", "4174": "limitsĠ", "4175": "e-levelĠ", "4176": "sampledĠ", "4177": "parameter-", "4178": "decoderĠ", "4179": "tokensĠ", "4180": "introducesĠaĠ", "4181": "bridgeĠ", "4182": "coupledĠ", "4183": "hardware", "4184": "s'Ġ", "4185": "primaryĠ", "4186": "19", "4187": "Mu", "4188": "50", "4189": "Q-", "4190": "round", "4191": "shareĠ", "4192": "air", "4193": "impo", "4194": "y-basedĠ", "4195": "over-", "4196": "black", "4197": "graphicĠ", "4198": "carri", "4199": "specializedĠ", "4200": "proveĠthatĠ", "4201": "draw", "4202": "naturallyĠ", "4203": "(ii)Ġ", "4204": "arbitraryĠ", "4205": "meaningfulĠ", "4206": "x-", "4207": "Py", "4208": "+Ġ", "4209": "SG", "4210": "bil", "4211": "profi", "4212": "OnĠ", "4213": "tingĠtheĠ", "4214": "mini", "4215": "ablationĠ", "4216": "play", "4217": "ofĠourĠ", "4218": "demonstratesĠ", "4219": "efficientlyĠ", "4220": "outperformingĠ", "4221": "preferenc", "4222": "upperĠ", "4223": "divergenceĠ", "4224": "quality", "4225": "electr", "4226": "health", "4227": "acqui", "4228": "publiclyĠ", "4229": "variableĠ", "4230": "variant", "4231": "performanceĠonĠ", "4232": "appear", "4233": "leastĠ", "4234": "cellĠ", "4235": "princip", "4236": ".ĠTheseĠfindingsĠ", "4237": "proxyĠ", "4238": "likelihoodĠ", "4239": "QA", "4240": "onceĠ", "4241": "thanĠtheĠ", "4242": "constrain", "4243": "cal{", "4244": "encodingĠ", "4245": "time,Ġ", "4246": "structures", "4247": "testedĠ", "4248": "descentĠ", "4249": "passĠ", "4250": "s.ĠExistingĠ", "4251": "queriesĠ", "4252": "fr", "4253": "$k", "4254": "KA", "4255": "mal", "4256": "siv", "4257": "genc", "4258": "gramĠ", "4259": "variationalĠ", "4260": "acces", "4261": "decoupl", "4262": "(i)Ġ", "4263": "macro", "4264": "}}", "4265": "ite", "4266": "onlyĠaĠ", "4267": "giveĠ", "4268": "robotĠ", "4269": "bĠ", "4270": "scap", "4271": "tsĠandĠ", "4272": "rend", "4273": "sesĠtheĠ", "4274": "generation,Ġ", "4275": "setting,Ġ", "4276": "acrossĠdiverseĠ", "4277": "scrip", "4278": "investig", "4279": "comprehensiveĠ", "4280": "PolicyĠ", "4281": "NA", "4282": "roo", "4283": "Dat", "4284": "wareĠ", "4285": "tionsĠandĠ", "4286": "generatesĠ", "4287": "callĠ", "4288": "objectĠ", "4289": "extensiveĠ", "4290": "privateĠ", "4291": "persistentĠ", "4292": "distinguish", "4293": "QĠ", "4294": "OO", "4295": "restĠ", "4296": "wea", "4297": "dowĠ", "4298": "log-", "4299": "coeffici", "4300": "solver", "4301": "contrac", "4302": "interventionĠ", "4303": "leadingĠtoĠ", "4304": "offersĠaĠ", "4305": "driftĠ", "4306": "whileĠmaintainingĠ", "4307": "Predic", "4308": "poorlyĠ", "4309": "gĠ", "4310": "L-", "4311": "edĠtheĠ", "4312": "apĠ", "4313": "echĠ", "4314": "ma-", "4315": "y:Ġ", "4316": "phicĠ", "4317": "exist", "4318": "deman", "4319": "demonstratedĠ", "4320": ",ĠtheseĠ", "4321": "captur", "4322": "constraintsĠ", "4323": "configurationsĠ", "4324": "planningĠ", "4325": "Mix", "4326": "agreementĠ", "4327": "majorĠ", "4328": "Auto", "4329": "orsĠ", "4330": "remo", "4331": "eĠforĠ", "4332": "M)Ġ", "4333": "corpu", "4334": "dependenceĠ", "4335": "achievesĠaĠ", "4336": "invol", "4337": "comparedĠwithĠ", "4338": "Deep", "4339": "correlationĠ", "4340": "confirmĠ", "4341": "skillĠ", "4342": "throughputĠ", "4343": "parallelĠ", "4344": "adjust", "4345": "commonlyĠ", "4346": "learnableĠ", "4347": "theor", "4348": "ence,Ġ", "4349": "beingĠ", "4350": "productionĠ", "4351": "uniform", "4352": "existingĠmethodsĠ", "4353": "responsesĠ", "4354": "variable", "4355": "viaĠaĠ", "4356": "guaranteesĠ", "4357": "interactionsĠ", "4358": "AURO", "4359": "broadĠ", "4360": "previouslyĠ", "4361": "platform", "4362": "fine-grainedĠ", "4363": "screen", "4364": "SP", "4365": "Hy", "4366": "uallyĠ", "4367": "theĠmodelĠ", "4368": "predictsĠ", "4369": "minalĠ", "4370": "3%Ġ", "4371": "recallĠ", "4372": "fav", "4373": "interval", "4374": "solveĠ", "4375": "sensingĠ", "4376": "designedĠtoĠ", "4377": "NetworkĠ", "4378": "thusĠ", "4379": "question", "4380": "leadingĠ", "4381": "moduleĠ", "4382": "certific", "4383": "vision-", "4384": "met", "4385": "ustr", "4386": "desp", "4387": "representĠ", "4388": ".ĠWeĠalsoĠ", "4389": "problemsĠ", "4390": "open-sourceĠ", "4391": "clientĠ", "4392": "aroundĠ", "4393": "quadraticĠ", "4394": "$1", "4395": "SV", "4396": "compet", "4397": "addi", "4398": "node", "4399": "prote", "4400": "umer", "4401": "test-", "4402": "generator", "4403": "centralizedĠ", "4404": "help", "4405": "cluster", "4406": "bilityĠ", "4407": "propagationĠ", "4408": "alternativ", "4409": "feasibleĠ", "4410": "becomesĠ", "4411": "Toge", "4412": "dependenciesĠ", "4413": "Cl", "4414": "mer", "4415": "ftĠ", "4416": "modelĠthatĠ", "4417": "es.ĠThisĠ", "4418": "deployedĠ", "4419": "LearningĠ", "4420": "MarkovĠ", "4421": "fĠ", "4422": "Sh", "4423": "(E", "4424": "G-", "4425": "B,Ġ", "4426": "abor", "4427": "verall", "4428": "veloc", "4429": "soft", "4430": "environmentalĠ", "4431": "s.ĠForĠ", "4432": "UnlikeĠ", "4433": "nearlyĠ", "4434": "^{-", "4435": "appliedĠtoĠ", "4436": "neighbor", "4437": "demandĠ", "4438": "struggleĠ", "4439": "xili", "4440": "windowĠ", "4441": "G)Ġ", "4442": "prec", "4443": "chain", "4444": "sub-", "4445": "constructĠ", "4446": "auth", "4447": "holdsĠ", "4448": "yieldsĠaĠ", "4449": "wideĠ", "4450": "harm", "4451": "evolvingĠ", "4452": "showingĠthatĠ", "4453": "willĠ", "4454": "weakĠ", "4455": "softĠ", "4456": "inspiredĠ", "4457": "black-", "4458": "MD", "4459": "reĠ", "4460": "les", "4461": "chingĠ", "4462": "s,ĠwithĠ", "4463": "coverĠ", "4464": "conserv", "4465": "20Ġ", "4466": "diversityĠ", "4467": "contextualĠ", "4468": "previousĠ", "4469": "ficialĠ", "4470": "udĠ", "4471": "ingsĠ", "4472": "Par", "4473": "yĠofĠ", "4474": "igen", "4475": "comb", "4476": "ations,ĠandĠ", "4477": "boundar", "4478": "resultsĠdemonstrateĠthatĠ", "4479": "forecastĠ", "4480": "empiricallyĠ", "4481": "perturbationĠ", "4482": "navi", "4483": "margin", "4484": "allowingĠ", "4485": "circuitĠ", "4486": "manifol", "4487": "\\times$Ġ", "4488": "knowledge,Ġ", "4489": "acquisi", "4490": "Sy", "4491": "ucin", "4492": "lig", "4493": "stop", "4494": "micĠ", "4495": "optimizedĠ", "4496": "class-", "4497": "detail", "4498": "prediction,Ġ", "4499": "continualĠ", "4500": "self-supervisedĠ", "4501": "LoRA", "4502": "voc", "4503": "foundationĠmodelsĠ", "4504": "providingĠaĠ", "4505": "constantĠ", "4506": "financialĠ", "4507": "auxili", "4508": "hlyĠ", "4509": "iso", "4510": "devi", "4511": "edĠfromĠ", "4512": "dsĠofĠ", "4513": "accuracy", "4514": "field", "4515": "mitigateĠ", "4516": "analyzeĠ", "4517": "influenceĠ", "4518": "gridĠ", "4519": "(I", "4520": "ByĠ", "4521": "open", "4522": "tive-", "4523": "udo", "4524": "probeĠ", "4525": "9%Ġ", "4526": "Reg", "4527": "feature", "4528": "limitĠ", "4529": "proxim", "4530": "addressesĠ", "4531": "GPU", "4532": "metricsĠ", "4533": "populationĠ", "4534": "inherentĠ", "4535": "shouldĠbeĠ", "4536": "ratio", "4537": "allucin", "4538": "Tw", "4539": "Gu", "4540": "18", "4541": "moment", "4542": "richĠ", "4543": "ation-basedĠ", "4544": "shiftsĠ", "4545": "asĠwellĠ", "4546": "EEGĠ", "4547": "OptimizationĠ", "4548": "symbolicĠ", "4549": "MP", "4550": "models.Ġ", "4551": "reachĠ", "4552": ".ĠAtĠ", "4553": "conditioningĠ", "4554": "exclu", "4555": "assessĠ", "4556": "seri", "4557": "generatorĠ", "4558": "milli", "4559": "costĠofĠ", "4560": "exploitĠ", "4561": "indicatingĠ", "4562": "verifiedĠ", "4563": ".\n\nTheĠ", "4564": "attributionĠ", "4565": "denoisingĠ", "4566": "landscap", "4567": "MO", "4568": "WĠ", "4569": "or-", "4570": "aterĠ", "4571": "stres", "4572": "reus", "4573": "thatĠareĠ", "4574": "nearĠ", "4575": "reserv", "4576": ".ĠAnĠ", "4577": "improvesĠtheĠ", "4578": "omicĠ", "4579": "space.Ġ", "4580": "encodeĠ", "4581": "inally,Ġ", "4582": "enhanceĠ", "4583": "allocationĠ", "4584": "pix", "4585": "eightĠ", "4586": "(K", "4587": "prov", "4588": "prot", "4589": "C)Ġ", "4590": "modelĠisĠ", "4591": "deep", "4592": "multipl", "4593": "roughĠ", "4594": ".ĠWeĠstudyĠ", "4595": "volum", "4596": "visibleĠ", "4597": "predictorĠ", "4598": "growingĠ", "4599": "neuro", "4600": "DespiteĠ", "4601": "collabor", "4602": "black-boxĠ", "4603": "pse", "4604": "eĠtoĠtheĠ", "4605": "producingĠ", "4606": "isĠoftenĠ", "4607": "methodĠforĠ", "4608": "analysisĠofĠ", "4609": "separationĠ", "4610": "algorithmicĠ", "4611": "metri", "4612": "loss", "4613": "supervision", "4614": "RMS", "4615": "essentialĠforĠ", "4616": "WithĠ", "4617": "deliver", "4618": "LE", "4619": "LO", "4620": "dro", "4621": "dur", "4622": "ed,ĠandĠ", "4623": "optimizerĠ", "4624": "project", "4625": "boundari", "4626": "finding", "4627": "000Ġ", "4628": "increaseĠ", "4629": "physicallyĠ", "4630": "-dependentĠ", "4631": "ampl", "4632": "prompt", "4633": "lawĠ", "4634": "judg", "4635": "s.ĠInĠthisĠwork,ĠweĠ", "4636": "micro", "4637": "neverĠ", "4638": "mixtureĠ", "4639": "strialĠ", "4640": "wo", "4641": "40", "4642": "Mem", "4643": "ation:Ġ", "4644": "mentalĠ", "4645": "abilityĠofĠ", "4646": "parameters,Ġ", "4647": "simulatedĠ", "4648": "learning.Ġ", "4649": "centricĠ", "4650": "memb", "4651": "overheadĠ", "4652": "PDEĠ", "4653": "interfaceĠ", "4654": "releaseĠ", "4655": "identifiesĠ", "4656": ".ĠUnderĠ", "4657": "fairnessĠ", "4658": "powerfulĠ", "4659": "post-hocĠ", "4660": "auxiliaryĠ", "4661": "AD", "4662": "rest", "4663": "whyĠ", "4664": "ding,Ġ", "4665": "ibri", "4666": "conditionsĠ", "4667": "ext-", "4668": "obta", "4669": "miseĠ", "4670": "off-", "4671": "Phy", "4672": "showsĠ", "4673": "subspaceĠ", "4674": "passingĠ", "4675": "unknownĠ", "4676": "feedback", "4677": "consum", "4678": "two-stageĠ", "4679": "shortĠ", "4680": "widelyĠusedĠ", "4681": "temperatureĠ", "4682": "sqrt{", "4683": "entireĠ", "4684": "SH", "4685": "armĠ", "4686": "inten", "4687": "valuesĠ", "4688": "integratedĠ", "4689": "record", "4690": "multi-agentĠ", "4691": "target-", "4692": "ground-", "4693": ".ĠFurthermore", "4694": "necessaryĠ", "4695": "usuallyĠ", "4696": "Se", "4697": "$n", "4698": ",ĠsoĠ", "4699": "measur", "4700": "fastĠ", "4701": "16Ġ", "4702": "needĠforĠ", "4703": "time-seriesĠ", "4704": "reliablyĠ", "4705": "short-", "4706": "out-of-distributionĠ", "4707": "Together", "4708": "hallucin", "4709": ".ĠN", "4710": "ardi", "4711": "centĠ", "4712": "ely,Ġ", "4713": "four", "4714": "unlearningĠ", "4715": "distor", "4716": "servingĠ", "4717": "direction", "4718": "relationalĠ", "4719": "approachĠtoĠ", "4720": "sparsityĠ", "4721": "verifiableĠ", "4722": "smallerĠ", "4723": "procedureĠ", "4724": "MNI", "4725": "\\mathrm{", "4726": "roughlyĠ", "4727": "}\\", "4728": "MR", "4729": "32", "4730": "14", "4731": "inn", "4732": "abo", "4733": "igu", "4734": "surfac", "4735": "attrac", "4736": "training-freeĠ", "4737": "actu", "4738": "surrog", "4739": "assumptionĠ", "4740": "goalĠ", "4741": "aimsĠtoĠ", "4742": "compatibleĠ", "4743": "counterfactualĠ", "4744": "eigen", "4745": "sĠanĠ", "4746": "forceĠ", "4747": "optimizeĠ", "4748": "identityĠ", "4749": "dual-", "4750": "runtimeĠ", "4751": "chainĠ", "4752": "ecauseĠtheĠ", "4753": "Adam", "4754": "topologyĠ", "4755": "differentiableĠ", "4756": "sufferĠfromĠ", "4757": "despiteĠ", "4758": "zedĠ", "4759": "loyĠ", "4760": "irst", "4761": "doc", "4762": "YetĠ", "4763": "sion-", "4764": "s.ĠWeĠintroduceĠ", "4765": "whetherĠtheĠ", "4766": "degradeĠ", "4767": "sharp", "4768": "deviceĠ", "4769": "cogni", "4770": "Train", "4771": "tailĠ", "4772": "emergedĠasĠaĠ", "4773": "addressĠthis,ĠweĠ", "4774": "focusĠonĠ", "4775": "orientedĠ", "4776": "illustr", "4777": "amĠ", "4778": "uredĠ", "4779": "fixĠ", "4780": "thereĠ", "4781": "latenc", "4782": "performanceĠandĠ", "4783": "meta", "4784": "recentlyĠ", "4785": ".ĠCon", "4786": "costlyĠ", "4787": "formulateĠ", "4788": "Imag", "4789": "difficultyĠ", "4790": "width", "4791": "leavingĠ", "4792": "maskedĠ", "4793": "segmentationĠ", "4794": "branchĠ", "4795": "flexibleĠ", "4796": "normĠ", "4797": "MachineĠ", "4798": "speechĠ", "4799": "ambigu", "4800": "PP", "4801": "XĠ", "4802": "oreĠ", "4803": "edĠasĠ", "4804": "ityĠofĠ", "4805": "covari", "4806": "classĠofĠ", "4807": "acrossĠthreeĠ", "4808": "approachĠforĠ", "4809": "plau", "4810": "F1Ġ", "4811": "continuous", "4812": ".ĠWhileĠ", "4813": ".ĠExperimentsĠonĠ", "4814": "falseĠ", "4815": "combineĠ", "4816": ")$", "4817": "CE", "4818": "JE", "4819": "13", "4820": "trade", "4821": "gatedĠ", "4822": "doorĠ", "4823": "mineĠ", "4824": "heav", "4825": "basedĠonĠtheĠ", "4826": "weightingĠ", "4827": "surve", "4828": "equationsĠ", "4829": "butĠalsoĠ", "4830": "gradientsĠ", "4831": "extendsĠ", "4832": "effor", "4833": "language-", "4834": "mismatchĠ", "4835": "workload", "4836": "reliesĠonĠ", "4837": ".ĠAlthoughĠ", "4838": "strength", "4839": "vs.Ġ", "4840": "age,Ġ", "4841": "differenceĠ", "4842": "es.ĠToĠ", "4843": "s.\n\nWeĠ", "4844": "failuresĠ", "4845": "batch", "4846": "patientĠ", "4847": "judgeĠ", "4848": "considerĠ", "4849": "contributionĠ", "4850": "BER", "4851": "diffusion", "4852": "libr", "4853": "pecifically,Ġ", "4854": "simultaneouslyĠ", "4855": "polynomialĠ", "4856": "loĠ", "4857": "abs", "4858": "Tab", "4859": "aveĠ", "4860": "abstr", "4861": "event", "4862": "present", "4863": "lack", "4864": "propor", "4865": "baseline,Ġ", "4866": "scores", "4867": "quantifyĠ", "4868": "covarianceĠ", "4869": "initializ", "4870": "patternsĠ", "4871": "matrix", "4872": "GRPO", "4873": "validatedĠ", "4874": "resource-", "4875": "securityĠ", "4876": "indicateĠthatĠ", "4877": "transportĠ", "4878": "fractionĠ", "4879": "capturingĠ", "4880": "vocab", "4881": "vo", "4882": "ink", "4883": "a,Ġ", "4884": "ierĠ", "4885": "proofĠ", "4886": "all-", "4887": "ersĠandĠ", "4888": "manualĠ", "4889": "abilityĠandĠ", "4890": "treeĠ", "4891": "mess", "4892": "tax", "4893": "consistenc", "4894": "reducesĠtheĠ", "4895": "FLĠ", "4896": "STĠ", "4897": "asser", "4898": "communic", "4899": "splitĠ", "4900": "Resul", "4901": "Qwen3-", "4902": "observeĠ", "4903": "penaltyĠ", "4904": "NetworksĠ(", "4905": "ilibri", "4906": "isĠun", "4907": "les,Ġ", "4908": "ItsĠ", "4909": "ofĠthisĠ", "4910": "modelĠandĠ", "4911": "dingĠtheĠ", "4912": "trainingĠdataĠ", "4913": "s.ĠWeĠproposeĠ", "4914": "tunedĠ", "4915": "ically,Ġ", "4916": "experimentsĠonĠ", "4917": "steeringĠ", "4918": "frequenc", "4919": "specifiedĠ", "4920": "engineeringĠ", "4921": "synchron", "4922": "hin", "4923": "esĠbyĠ", "4924": "tivari", "4925": "Four", "4926": "acrossĠaĠ", "4927": "ly-", "4928": ".ĠWeĠshowĠthatĠ", "4929": "baselines.Ġ", "4930": "theyĠareĠ", "4931": "odicĠ", "4932": "leveragesĠ", "4933": "programm", "4934": "closed-formĠ", "4935": "machine-", "4936": "teĠCar", "4937": "rigorousĠ", "4938": "DE", "4939": "15", "4940": "Imp", "4941": "seedĠ", "4942": "aysĠ", "4943": "interpol", "4944": "care", "4945": "drivingĠ", "4946": "ModelĠ", "4947": "LST", "4948": "checkpoint", "4949": "reproducibleĠ", "4950": "propertiesĠ", "4951": "maximumĠ", "4952": "pruningĠ", "4953": "asymptoticĠ", "4954": "MonteĠCar", "4955": "Do", "4956": "ton", "4957": "ses", "4958": "scalesĠ", "4959": "estimatedĠ", "4960": "boundsĠ", "4961": "strictlyĠ", "4962": "regularizedĠ", "4963": "interaction", "4964": "perturbationsĠ", "4965": "augmentationĠ", "4966": "rich", "4967": "privacy-", "4968": "overloo", "4969": "ExtensiveĠexperimentsĠonĠ", "4970": "\\tex", "4971": "universalĠ", "4972": "Io", "4973": "Fe", "4974": "conn", "4975": "ilo", "4976": "learnerĠ", "4977": "gam", "4978": "scale,Ġ", "4979": "gran", "4980": "-onlyĠ", "4981": "LLM-basedĠ", "4982": "usersĠ", "4983": "applyingĠ", "4984": "productĠ", "4985": "remainsĠaĠ", "4986": "testingĠ", "4987": "decisionsĠ", "4988": "couldĠ", "4989": "neuralĠnetworksĠ(", "4990": "relax", "4991": "exhibitsĠ", "4992": "refinementĠ", "4993": "DiffusionĠ", "4994": "alignĠ", "4995": "Rando", "4996": "uildingĠonĠ", "4997": "wouldĠ", "4998": "aboveĠ", "4999": "CU"}, "merges": [[100, 256, 293], [104, 109, 294], [114, 256, 295], [110, 109, 296], [115, 104, 297], [115, 103, 298], [100, 113, 299], [99, 256, 300], [100, 109, 301], [96, 109, 302], [113, 100, 303], [96, 107, 304], [115, 256, 305], [110, 113, 306], [43, 256, 307], [294, 102, 308], [297, 296, 309], [120, 256, 310], [96, 113, 311], [113, 110, 312], [96, 115, 313], [308, 256, 314], [114, 115, 315], [100, 300, 316], [45, 256, 317], [298, 293, 318], [104, 98, 319], [96, 98, 320], [99, 100, 321], [302, 300, 322], [304, 256, 323], [96, 256, 324], [96, 309, 325], [114, 104, 326], [100, 295, 327], [110, 256, 328], [98, 110, 329], [96, 114, 330], [107, 100, 331], [116, 113, 332], [104, 115, 333], [100, 114, 334], [299, 256, 335], [110, 101, 336], [108, 111, 337], [113, 96, 338], [101, 306, 339], [99, 104, 340], [107, 310, 341], [115, 328, 342], [111, 312, 343], [100, 98, 344], [98, 296, 345], [116, 109, 346], [108, 110, 347], [336, 256, 348], [325, 256, 349], [108, 100, 350], [98, 103, 351], [301, 115, 352], [96, 97, 353], [116, 107, 354], [104, 295, 355], [96, 305, 356], [107, 110, 357], [296, 256, 358], [303, 114, 359], [107, 293, 360], [100, 119, 361], [301, 305, 362], [117, 293, 363], [294, 256, 364], [108, 256, 365], [111, 299, 366], [100, 107, 367], [104, 298, 368], [114, 307, 369], [302, 256, 370], [113, 104, 371], [117, 299, 372], [116, 98, 373], [114, 100, 374], [96, 102, 375], [298, 356, 376], [96, 111, 377], [321, 107, 378], [111, 110, 379], [309, 256, 380], [118, 103, 381], [104, 107, 382], [104, 114, 383], [294, 115, 384], [297, 98, 385], [118, 368, 386], [347, 378, 387], [116, 115, 388], [103, 256, 389], [315, 113, 390], [339, 256, 391], [114, 317, 392], [114, 116, 393], [112, 116, 394], [106, 256, 395], [329, 337, 396], [98, 293, 397], [116, 114, 398], [117, 104, 399], [100, 115, 400], [313, 293, 401], [104, 121, 402], [108, 96, 403], [115, 113, 404], [104, 102, 405], [301, 256, 406], [386, 256, 407], [306, 256, 408], [110, 118, 409], [114, 111, 410], [96, 99, 411], [118, 306, 412], [115, 338, 413], [104, 108, 414], [101, 101, 415], [96, 295, 416], [297, 363, 417], [339, 108, 418], [307, 322, 419], [83, 103, 420], [110, 107, 421], [40, 256, 422], [111, 303, 423], [101, 104, 424], [99, 313, 425], [333, 310, 426], [297, 108, 427], [100, 117, 428], [100, 44, 429], [86, 293, 430], [114, 103, 431], [346, 99, 432], [114, 98, 433], [100, 99, 434], [111, 107, 435], [102, 301, 436], [311, 293, 437], [311, 109, 438], [97, 116, 439], [99, 373, 440], [109, 110, 441], [100, 108, 442], [98, 107, 443], [97, 310, 444], [109, 256, 445], [115, 295, 446], [115, 299, 447], [331, 438, 448], [101, 312, 449], [353, 360, 450], [96, 108, 451], [110, 111, 452], [114, 293, 453], [303, 98, 454], [304, 107, 455], [319, 256, 456], [413, 294, 457], [10, 10, 458], [118, 293, 459], [104, 113, 460], [97, 330, 461], [111, 359, 462], [449, 365, 463], [45, 458, 464], [111, 311, 465], [298, 100, 466], [345, 115, 467], [405, 103, 468], [317, 420, 469], [304, 341, 470], [320, 103, 471], [110, 116, 472], [385, 256, 473], [97, 110, 474], [114, 295, 475], [115, 110, 476], [317, 430, 477], [298, 355, 478], [104, 99, 479], [313, 316, 480], [390, 373, 481], [104, 337, 482], [332, 293, 483], [436, 299, 484], [116, 303, 485], [344, 115, 486], [99, 319, 487], [304, 116, 488], [311, 102, 489], [301, 98, 490], [326, 102, 491], [311, 104, 492], [104, 305, 493], [102, 338, 494], [120, 307, 495], [109, 100, 496], [297, 117, 497], [108, 354, 498], [104, 101, 499], [57, 256, 500], [387, 256, 501], [295, 322, 502], [298, 110, 503], [412, 395, 504], [375, 293, 505], [108, 352, 506], [319, 323, 507], [100, 111, 508], [114, 120, 509], [353, 382, 510], [101, 294, 511], [110, 332, 512], [329, 108, 513], [99, 110, 514], [301, 397, 515], [312, 475, 516], [100, 307, 517], [104, 360, 518], [302, 397, 519], [384, 299, 520], [357, 118, 521], [301, 297, 522], [115, 100, 523], [100, 415, 524], [101, 338, 525], [302, 102, 526], [99, 314, 527], [118, 100, 528], [99, 295, 529], [303, 102, 530], [97, 100, 531], [351, 256, 532], [326, 358, 533], [98, 332, 534], [350, 503, 535], [114, 305, 536], [423, 487, 537], [110, 97, 538], [116, 111, 539], [298, 256, 540], [409, 256, 541], [321, 111, 542], [114, 96, 543], [100, 305, 544], [107, 104, 545], [366, 418, 546], [296, 102, 547], [381, 518, 548], [325, 295, 549], [116, 102, 550], [298, 335, 551], [448, 314, 552], [461, 316, 553], [99, 293, 554], [101, 299, 555], [311, 256, 556], [111, 103, 557], [326, 296, 558], [304, 402, 559], [491, 109, 560], [314, 318, 561], [96, 294, 562], [320, 516, 563], [387, 295, 564], [481, 115, 565], [367, 256, 566], [348, 318, 567], [313, 327, 568], [115, 330, 569], [334, 307, 570], [98, 370, 571], [302, 98, 572], [294, 293, 573], [525, 350, 574], [101, 100, 575], [302, 114, 576], [107, 256, 577], [352, 295, 578], [340, 315, 579], [452, 427, 580], [47, 45, 581], [428, 488, 582], [299, 117, 583], [319, 389, 584], [301, 99, 585], [319, 104, 586], [98, 306, 587], [334, 293, 588], [343, 379, 589], [110, 388, 590], [96, 417, 591], [333, 295, 592], [410, 344, 593], [331, 98, 594], [381, 584, 595], [498, 297, 596], [108, 311, 597], [412, 106, 598], [457, 314, 599], [117, 492, 600], [377, 343, 601], [443, 330, 602], [256, 322, 603], [108, 296, 604], [340, 415, 605], [98, 104, 606], [307, 459, 607], [120, 44, 608], [311, 300, 609], [116, 108, 610], [482, 312, 611], [332, 323, 612], [115, 301, 613], [469, 293, 614], [357, 98, 615], [359, 354, 616], [343, 97, 617], [320, 389, 618], [433, 304, 619], [465, 96, 620], [340, 309, 621], [425, 324, 622], [111, 96, 623], [103, 96, 624], [315, 302, 625], [117, 335, 626], [40, 307, 627], [99, 299, 628], [574, 504, 629], [393, 97, 630], [334, 295, 631], [96, 382, 632], [75, 76, 633], [108, 294, 634], [104, 315, 635], [108, 313, 636], [117, 100, 637], [108, 306, 638], [36, 256, 639], [304, 44, 640], [317, 64, 641], [432, 335, 642], [303, 462, 643], [472, 305, 644], [116, 99, 645], [35, 256, 646], [334, 305, 647], [331, 117, 648], [353, 107, 649], [303, 300, 650], [308, 307, 651], [385, 323, 652], [96, 120, 653], [97, 301, 654], [441, 305, 655], [509, 315, 656], [108, 302, 657], [115, 314, 658], [108, 362, 659], [116, 323, 660], [115, 316, 661], [309, 295, 662], [320, 106, 663], [111, 306, 664], [312, 550, 665], [510, 426, 666], [440, 293, 667], [350, 404, 668], [303, 330, 669], [101, 354, 670], [311, 351, 671], [346, 98, 672], [543, 337, 673], [371, 439, 674], [303, 394, 675], [100, 102, 676], [104, 97, 677], [357, 102, 678], [512, 256, 679], [101, 110, 680], [115, 118, 681], [111, 371, 682], [320, 534, 683], [44, 553, 684], [72, 445, 685], [379, 107, 686], [119, 256, 687], [643, 352, 688], [439, 305, 689], [455, 256, 690], [294, 100, 691], [301, 102, 692], [431, 541, 693], [101, 320, 694], [299, 293, 695], [384, 312, 696], [103, 468, 697], [327, 318, 698], [425, 330, 699], [369, 322, 700], [569, 106, 701], [611, 117, 702], [105, 344, 703], [111, 113, 704], [100, 372, 705], [403, 294, 706], [303, 107, 707], [113, 302, 708], [580, 402, 709], [471, 104, 710], [311, 310, 711], [298, 665, 712], [361, 366, 713], [343, 399, 714], [115, 115, 715], [313, 314, 716], [303, 293, 717], [460, 256, 718], [334, 114, 719], [396, 331, 720], [620, 350, 721], [325, 307, 722], [110, 626, 723], [396, 388, 724], [351, 597, 725], [107, 107, 726], [102, 100, 727], [97, 293, 728], [104, 327, 729], [107, 489, 730], [654, 725, 731], [298, 370, 732], [296, 341, 733], [115, 335, 734], [96, 398, 735], [294, 342, 736], [326, 315, 737], [304, 120, 738], [404, 576, 739], [467, 312, 740], [75, 633, 741], [321, 604, 742], [68, 119, 743], [742, 390, 744], [120, 109, 745], [114, 583, 746], [472, 295, 747], [104, 111, 748], [109, 400, 749], [298, 588, 750], [303, 115, 751], [98, 377, 752], [575, 313, 753], [340, 454, 754], [364, 318, 755], [110, 372, 756], [347, 99, 757], [38, 295, 758], [683, 320, 759], [107, 313, 760], [361, 435, 761], [524, 586, 762], [100, 341, 763], [302, 738, 764], [526, 116, 765], [99, 102, 766], [103, 100, 767], [712, 389, 768], [96, 117, 769], [302, 305, 770], [329, 372, 771], [589, 453, 772], [316, 444, 773], [102, 312, 774], [334, 317, 775], [302, 115, 776], [104, 297, 777], [579, 674, 778], [461, 367, 779], [416, 324, 780], [307, 324, 781], [358, 318, 782], [296, 293, 783], [96, 297, 784], [528, 468, 785], [392, 420, 786], [114, 308, 787], [693, 376, 788], [110, 108, 789], [117, 304, 790], [345, 621, 791], [411, 377, 792], [443, 116, 793], [547, 256, 794], [361, 115, 795], [114, 44, 796], [524, 344, 797], [710, 428, 798], [299, 295, 799], [745, 451, 800], [99, 44, 801], [111, 116, 802], [344, 103, 803], [118, 256, 804], [315, 338, 805], [398, 314, 806], [99, 335, 807], [546, 519, 808], [616, 446, 809], [410, 320, 810], [334, 427, 811], [474, 540, 812], [319, 349, 813], [542, 585, 814], [485, 295, 815], [466, 718, 816], [58, 256, 817], [617, 331, 818], [114, 328, 819], [114, 421, 820], [333, 120, 821], [115, 96, 822], [381, 695, 823], [107, 414, 824], [315, 645, 825], [427, 293, 826], [392, 430, 827], [361, 111, 828], [635, 314, 829], [97, 400, 830], [326, 363, 831], [393, 532, 832], [109, 296, 833], [256, 342, 834], [99, 800, 835], [681, 328, 836], [294, 98, 837], [114, 327, 838], [605, 299, 839], [340, 114, 840], [425, 96, 841], [100, 317, 842], [383, 293, 843], [696, 667, 844], [107, 765, 845], [295, 324, 846], [64, 256, 847], [110, 366, 848], [648, 566, 849], [699, 400, 850], [508, 256, 851], [345, 737, 852], [342, 318, 853], [535, 529, 854], [555, 515, 855], [295, 348, 856], [315, 44, 857], [115, 489, 858], [333, 486, 859], [105, 486, 860], [374, 594, 861], [102, 116, 862], [303, 440, 863], [442, 362, 864], [115, 120, 865], [381, 406, 866], [100, 618, 867], [44, 44, 868], [671, 859, 869], [83, 328, 870], [299, 113, 871], [102, 306, 872], [343, 98, 873], [469, 355, 874], [294, 418, 875], [114, 464, 876], [424, 113, 877], [108, 383, 878], [325, 323, 879], [117, 488, 880], [113, 296, 881], [352, 341, 882], [295, 318, 883], [457, 316, 884], [476, 106, 885], [106, 109, 886], [319, 470, 887], [295, 342, 888], [75, 256, 889], [393, 111, 890], [656, 442, 891], [309, 323, 892], [100, 337, 893], [67, 256, 894], [345, 805, 895], [295, 39, 896], [107, 353, 897], [321, 115, 898], [479, 522, 899], [317, 78, 900], [114, 316, 901], [108, 301, 902], [96, 300, 903], [47, 47, 904], [119, 414, 905], [593, 499, 906], [313, 306, 907], [336, 115, 908], [490, 310, 909], [76, 110, 910], [393, 366, 911], [886, 409, 912], [673, 107, 913], [332, 256, 914], [523, 337, 915], [97, 294, 916], [107, 691, 917], [386, 644, 918], [377, 435, 919], [298, 299, 920], [313, 115, 921], [350, 330, 922], [538, 746, 923], [114, 332, 924], [97, 104, 925], [405, 109, 926], [404, 320, 927], [340, 902, 928], [115, 310, 929], [96, 315, 930], [403, 364, 931], [359, 111, 932], [596, 44, 933], [759, 310, 934], [686, 319, 935], [872, 368, 936], [104, 117, 937], [845, 505, 938], [98, 304, 939], [120, 314, 940], [531, 624, 941], [824, 333, 942], [117, 383, 943], [721, 447, 944], [474, 432, 945], [301, 329, 946], [538, 703, 947], [409, 705, 948], [96, 118, 949], [636, 351, 950], [304, 936, 951], [414, 578, 952], [744, 401, 953], [602, 326, 954], [101, 672, 955], [99, 308, 956], [98, 116, 957], [295, 376, 958], [345, 481, 959], [336, 101, 960], [299, 102, 961], [98, 352, 962], [343, 440, 963], [455, 692, 964], [316, 342, 965], [304, 426, 966], [302, 109, 967], [638, 293, 968], [114, 301, 969], [303, 706, 970], [865, 111, 971], [941, 399, 972], [295, 437, 973], [398, 305, 974], [351, 964, 975], [106, 314, 976], [432, 299, 977], [374, 394, 978], [948, 307, 979], [299, 110, 980], [830, 528, 981], [68, 256, 982], [107, 653, 983], [354, 311, 984], [96, 650, 985], [981, 406, 986], [99, 371, 987], [294, 305, 988], [101, 632, 989], [114, 314, 990], [302, 297, 991], [424, 119, 992], [908, 406, 993], [447, 109, 994], [97, 107, 995], [321, 606, 996], [315, 313, 997], [339, 365, 998], [303, 118, 999], [535, 300, 1000], [336, 44, 1001], [731, 106, 1002], [513, 108, 1003], [303, 545, 1004], [522, 323, 1005], [346, 104, 1006], [411, 99, 1007], [114, 422, 1008], [302, 383, 1009], [317, 685, 1010], [306, 323, 1011], [293, 318, 1012], [357, 120, 1013], [313, 676, 1014], [320, 305, 1015], [309, 307, 1016], [928, 558, 1017], [111, 389, 1018], [354, 556, 1019], [103, 120, 1020], [407, 324, 1021], [496, 612, 1022], [669, 296, 1023], [361, 305, 1024], [327, 324, 1025], [298, 717, 1026], [72, 256, 1027], [115, 346, 1028], [103, 416, 1029], [521, 256, 1030], [399, 99, 1031], [625, 99, 1032], [66, 110, 1033], [312, 114, 1034], [96, 388, 1035], [327, 322, 1036], [100, 394, 1037], [297, 107, 1038], [499, 319, 1039], [727, 110, 1040], [83, 256, 1041], [115, 44, 1042], [764, 326, 1043], [72, 109, 1044], [326, 97, 1045], [1007, 359, 1046], [100, 315, 1047], [361, 829, 1048], [339, 98, 1049], [331, 44, 1050], [509, 109, 1051], [697, 44, 1052], [116, 365, 1053], [350, 638, 1054], [825, 310, 1055], [304, 819, 1056], [494, 340, 1057], [301, 649, 1058], [374, 715, 1059], [304, 926, 1060], [115, 341, 1061], [97, 663, 1062], [557, 120, 1063], [779, 294, 1064], [890, 664, 1065], [906, 456, 1066], [565, 485, 1067], [103, 541, 1068], [108, 803, 1069], [98, 302, 1070], [394, 991, 1071], [115, 332, 1072], [569, 395, 1073], [313, 613, 1074], [587, 454, 1075], [47, 256, 1076], [330, 114, 1077], [424, 316, 1078], [537, 380, 1079], [71, 979, 1080], [383, 473, 1081], [935, 310, 1082], [108, 104, 1083], [396, 110, 1084], [675, 104, 1085], [96, 303, 1086], [349, 322, 1087], [299, 44, 1088], [364, 324, 1089], [116, 380, 1090], [100, 311, 1091], [832, 416, 1092], [451, 293, 1093], [749, 598, 1094], [656, 100, 1095], [860, 306, 1096], [326, 498, 1097], [106, 100, 1098], [467, 294, 1099], [307, 318, 1100], [340, 433, 1101], [320, 380, 1102], [367, 107, 1103], [346, 300, 1104], [107, 300, 1105], [299, 104, 1106], [837, 669, 1107], [559, 316, 1108], [77, 77, 1109], [367, 101, 1110], [332, 551, 1111], [303, 96, 1112], [802, 305, 1113], [355, 324, 1114], [115, 306, 1115], [325, 317, 1116], [109, 328, 1117], [494, 557, 1118], [668, 456, 1119], [333, 495, 1120], [109, 610, 1121], [413, 1096, 1122], [677, 113, 1123], [99, 301, 1124], [462, 583, 1125], [704, 320, 1126], [917, 556, 1127], [101, 1111, 1128], [326, 121, 1129], [1069, 1009, 1130], [99, 116, 1131], [357, 111, 1132], [340, 372, 1133], [101, 813, 1134], [833, 44, 1135], [111, 388, 1136], [302, 99, 1137], [551, 732, 1138], [787, 360, 1139], [624, 363, 1140], [932, 296, 1141], [542, 1013, 1142], [110, 303, 1143], [81, 100, 1144], [321, 295, 1145], [345, 372, 1146], [103, 110, 1147], [1063, 114, 1148], [619, 293, 1149], [313, 408, 1150], [101, 107, 1151], [320, 395, 1152], [308, 317, 1153], [320, 98, 1154], [476, 44, 1155], [294, 793, 1156], [82, 256, 1157], [297, 350, 1158], [601, 618, 1159], [760, 362, 1160], [494, 1018, 1161], [379, 384, 1162], [293, 348, 1163], [379, 326, 1164], [434, 44, 1165], [730, 293, 1166], [818, 108, 1167], [520, 423, 1168], [109, 631, 1169], [311, 99, 1170], [625, 297, 1171], [949, 437, 1172], [637, 1132, 1173], [303, 640, 1174], [709, 349, 1175], [369, 459, 1176], [98, 1034, 1177], [513, 916, 1178], [117, 301, 1179], [48, 45, 1180], [96, 116, 1181], [431, 409, 1182], [97, 434, 1183], [351, 526, 1184], [410, 311, 1185], [295, 391, 1186], [455, 495, 1187], [107, 573, 1188], [35, 91, 1189], [412, 1105, 1190], [571, 728, 1191], [104, 367, 1192], [114, 1093, 1193], [601, 471, 1194], [49, 256, 1195], [353, 331, 1196], [835, 319, 1197], [114, 500, 1198], [114, 512, 1199], [306, 115, 1200], [484, 559, 1201], [491, 445, 1202], [385, 470, 1203], [347, 536, 1204], [898, 344, 1205], [521, 44, 1206], [98, 735, 1207], [338, 1138, 1208], [1032, 609, 1209], [384, 676, 1210], [349, 348, 1211], [1099, 116, 1212], [371, 97, 1213], [99, 409, 1214], [329, 346, 1215], [714, 554, 1216], [871, 408, 1217], [897, 367, 1218], [601, 905, 1219], [321, 1173, 1220], [314, 324, 1221], [1059, 308, 1222], [939, 1123, 1223], [814, 362, 1224], [875, 349, 1225], [615, 323, 1226], [321, 329, 1227], [762, 362, 1228], [106, 293, 1229], [76, 256, 1230], [702, 327, 1231], [81, 256, 1232], [390, 1014, 1233], [66, 296, 1234], [120, 1192, 1235], [404, 302, 1236], [786, 293, 1237], [109, 104, 1238], [303, 295, 1239], [749, 504, 1240], [790, 479, 1241], [294, 855, 1242], [358, 324, 1243], [962, 113, 1244], [399, 881, 1245], [114, 1110, 1246], [810, 293, 1247], [116, 359, 1248], [374, 305, 1249], [858, 544, 1250], [511, 429, 1251], [114, 108, 1252], [98, 357, 1253], [1051, 466, 1254], [407, 318, 1255], [877, 536, 1256], [463, 318, 1257], [680, 454, 1258], [48, 256, 1259], [114, 329, 1260], [383, 103, 1261], [66, 256, 1262], [1177, 796, 1263], [111, 360, 1264], [970, 295, 1265], [915, 1011, 1266], [497, 763, 1267], [116, 533, 1268], [589, 901, 1269], [301, 1245, 1270], [44, 101, 1271], [431, 110, 1272], [442, 1183, 1273], [761, 319, 1274], [120, 544, 1275], [885, 301, 1276], [1210, 113, 1277], [330, 293, 1278], [299, 822, 1279], [329, 107, 1280], [839, 362, 1281], [740, 726, 1282], [102, 377, 1283], [256, 256, 1284], [753, 483, 1285], [433, 306, 1286], [778, 380, 1287], [44, 849, 1288], [466, 310, 1289], [396, 311, 1290], [590, 546, 1291], [743, 366, 1292], [1168, 115, 1293], [670, 256, 1294], [769, 632, 1295], [98, 371, 1296], [399, 324, 1297], [374, 465, 1298], [1047, 649, 1299], [317, 69, 1300], [1023, 314, 1301], [560, 1039, 1302], [798, 327, 1303], [49, 45, 1304], [110, 115, 1305], [565, 483, 1306], [402, 349, 1307], [377, 111, 1308], [462, 362, 1309], [103, 421, 1310], [321, 1202, 1311], [312, 111, 1312], [555, 490, 1313], [315, 401, 1314], [785, 305, 1315], [96, 337, 1316], [582, 349, 1317], [371, 114, 1318], [306, 108, 1319], [731, 395, 1320], [96, 310, 1321], [912, 331, 1322], [641, 256, 1323], [953, 376, 1324], [1156, 527, 1325], [79, 256, 1326], [375, 441, 1327], [115, 795, 1328], [303, 326, 1329], [303, 771, 1330], [951, 108, 1331], [436, 100, 1332], [98, 508, 1333], [107, 468, 1334], [101, 310, 1335], [116, 97, 1336], [766, 293, 1337], [469, 588, 1338], [630, 1171, 1339], [113, 346, 1340], [330, 305, 1341], [784, 114, 1342], [315, 100, 1343], [107, 547, 1344], [102, 401, 1345], [514, 706, 1346], [987, 117, 1347], [1046, 295, 1348], [105, 110, 1349], [1213, 388, 1350], [535, 99, 1351], [114, 299, 1352], [295, 364, 1353], [312, 388, 1354], [312, 97, 1355], [295, 407, 1356], [560, 304, 1357], [997, 429, 1358], [101, 96, 1359], [1074, 380, 1360], [311, 305, 1361], [110, 44, 1362], [414, 375, 1363], [562, 536, 1364], [326, 370, 1365], [721, 734, 1366], [439, 766, 1367], [357, 97, 1368], [448, 316, 1369], [315, 1342, 1370], [115, 303, 1371], [117, 421, 1372], [466, 1143, 1373], [294, 1049, 1374], [1112, 365, 1375], [325, 369, 1376], [114, 351, 1377], [530, 104, 1378], [672, 1279, 1379], [315, 1375, 1380], [713, 952, 1381], [108, 382, 1382], [118, 335, 1383], [523, 315, 1384], [705, 310, 1385], [381, 100, 1386], [411, 117, 1387], [375, 1364, 1388], [333, 293, 1389], [582, 401, 1390], [818, 365, 1391], [391, 318, 1392], [757, 323, 1393], [740, 577, 1394], [329, 315, 1395], [372, 114, 1396], [739, 418, 1397], [315, 110, 1398], [100, 1031, 1399], [111, 313, 1400], [422, 322, 1401], [306, 99, 1402], [1017, 323, 1403], [1258, 930, 1404], [298, 406, 1405], [103, 306, 1406], [104, 321, 1407], [496, 804, 1408], [900, 914, 1409], [49, 47, 1410], [325, 44, 1411], [321, 447, 1412], [434, 307, 1413], [98, 516, 1414], [332, 314, 1415], [309, 44, 1416], [115, 293, 1417], [1054, 310, 1418], [1386, 551, 1419], [375, 102, 1420], [390, 794, 1421], [543, 101, 1422], [108, 471, 1423], [321, 560, 1424], [410, 784, 1425], [102, 1368, 1426], [114, 344, 1427], [375, 362, 1428], [361, 613, 1429], [596, 1264, 1430], [398, 293, 1431], [115, 371, 1432], [343, 337, 1433], [314, 322, 1434], [96, 372, 1435], [366, 44, 1436], [103, 610, 1437], [115, 647, 1438], [52, 256, 1439], [110, 398, 1440], [103, 299, 1441], [298, 429, 1442], [922, 485, 1443], [374, 657, 1444], [65, 256, 1445], [441, 117, 1446], [858, 400, 1447], [351, 311, 1448], [1251, 1028, 1449], [1379, 384, 1450], [70, 79, 1451], [580, 323, 1452], [629, 376, 1453], [294, 316, 1454], [565, 612, 1455], [862, 479, 1456], [96, 364, 1457], [86, 103, 1458], [629, 391, 1459], [992, 316, 1460], [431, 499, 1461], [394, 966, 1462], [1374, 864, 1463], [118, 843, 1464], [418, 354, 1465], [115, 307, 1466], [439, 315, 1467], [530, 359, 1468], [303, 341, 1469], [797, 417, 1470], [1448, 320, 1471], [103, 400, 1472], [1057, 362, 1473], [390, 547, 1474], [317, 82, 1475], [320, 497, 1476], [111, 748, 1477], [593, 404, 1478], [627, 324, 1479], [64, 81, 1480], [396, 296, 1481], [77, 400, 1482], [895, 384, 1483], [327, 348, 1484], [371, 428, 1485], [868, 256, 1486], [476, 421, 1487], [83, 113, 1488], [109, 313, 1489], [398, 316, 1490], [1477, 367, 1491], [357, 475, 1492], [680, 432, 1493], [314, 39, 1494], [373, 98, 1495], [99, 401, 1496], [708, 514, 1497], [562, 295, 1498], [352, 323, 1499], [329, 536, 1500], [312, 1467, 1501], [113, 362, 1502], [100, 419, 1503], [303, 411, 1504], [467, 1024, 1505], [1045, 360, 1506], [1471, 447, 1507], [1472, 980, 1508], [741, 256, 1509], [539, 834, 1510], [351, 110, 1511], [943, 316, 1512], [774, 539, 1513], [315, 851, 1514], [84, 109, 1515], [99, 660, 1516], [333, 299, 1517], [296, 300, 1518], [302, 310, 1519], [514, 931, 1520], [299, 109, 1521], [1126, 652, 1522], [1270, 506, 1523], [114, 1495, 1524], [621, 323, 1525], [484, 349, 1526], [675, 460, 1527], [688, 349, 1528], [321, 851, 1529], [1174, 1190, 1530], [339, 293, 1531], [996, 558, 1532], [699, 544, 1533], [1355, 974, 1534], [392, 78, 1535], [108, 97, 1536], [404, 116, 1537], [382, 107, 1538], [465, 385, 1539], [1214, 109, 1540], [50, 45, 1541], [919, 319, 1542], [999, 609, 1543], [1295, 450, 1544], [457, 308, 1545], [1508, 1332, 1546], [893, 460, 1547], [96, 106, 1548], [342, 324, 1549], [104, 363, 1550], [108, 330, 1551], [752, 115, 1552], [443, 294, 1553], [1035, 110, 1554], [1246, 44, 1555], [376, 318, 1556], [539, 425, 1557], [673, 360, 1558], [111, 335, 1559], [109, 1319, 1560], [334, 419, 1561], [696, 440, 1562], [303, 435, 1563], [75, 100, 1564], [317, 870, 1565], [111, 100, 1566], [44, 1155, 1567], [99, 307, 1568], [319, 354, 1569], [51, 256, 1570], [75, 110, 1571], [101, 319, 1572], [101, 451, 1573], [546, 572, 1574], [1084, 326, 1575], [402, 316, 1576], [1095, 365, 1577], [751, 1485, 1578], [403, 298, 1579], [393, 415, 1580], [724, 879, 1581], [81, 75, 1582], [399, 100, 1583], [356, 318, 1584], [321, 494, 1585], [1121, 97, 1586], [79, 78, 1587], [403, 310, 1588], [911, 1512, 1589], [294, 44, 1590], [377, 335, 1591], [720, 119, 1592], [116, 435, 1593], [1001, 1442, 1594], [48, 47, 1595], [307, 595, 1596], [101, 679, 1597], [327, 364, 1598], [97, 371, 1599], [329, 726, 1600], [390, 319, 1601], [81, 64, 1602], [77, 100, 1603], [361, 344, 1604], [602, 114, 1605], [668, 319, 1606], [374, 372, 1607], [954, 1134, 1608], [885, 406, 1609], [317, 65, 1610], [754, 1061, 1611], [392, 64, 1612], [330, 393, 1613], [424, 367, 1614], [306, 807, 1615], [1412, 634, 1616], [383, 389, 1617], [611, 363, 1618], [379, 988, 1619], [433, 301, 1620], [116, 1038, 1621], [1199, 397, 1622], [359, 421, 1623], [1358, 1594, 1624], [537, 417, 1625], [1327, 114, 1626], [325, 419, 1627], [688, 549, 1628], [326, 929, 1629], [1426, 323, 1630], [315, 508, 1631], [1420, 530, 1632], [97, 304, 1633], [303, 637, 1634], [111, 1591, 1635], [50, 256, 1636], [309, 369, 1637], [828, 357, 1638], [873, 719, 1639], [682, 117, 1640], [343, 476, 1641], [956, 295, 1642], [294, 440, 1643], [381, 110, 1644], [392, 685, 1645], [852, 882, 1646], [331, 506, 1647], [682, 408, 1648], [374, 115, 1649], [871, 306, 1650], [44, 1066, 1651], [1624, 1361, 1652], [340, 102, 1653], [295, 358, 1654], [343, 366, 1655], [530, 984, 1656], [1344, 44, 1657], [396, 359, 1658], [428, 421, 1659], [303, 664, 1660], [772, 324, 1661], [1254, 473, 1662], [1067, 300, 1663], [113, 401, 1664], [39, 82, 1665], [416, 318, 1666], [299, 314, 1667], [301, 961, 1668], [436, 397, 1669], [116, 295, 1670], [306, 310, 1671], [111, 344, 1672], [350, 370, 1673], [484, 591, 1674], [1292, 952, 1675], [109, 344, 1676], [465, 297, 1677], [1402, 294, 1678], [947, 497, 1679], [327, 437, 1680], [301, 44, 1681], [472, 102, 1682], [634, 414, 1683], [379, 857, 1684], [983, 335, 1685], [347, 117, 1686], [753, 815, 1687], [321, 511, 1688], [111, 114, 1689], [104, 300, 1690], [862, 311, 1691], [321, 433, 1692], [113, 526, 1693], [326, 337, 1694], [880, 293, 1695], [1205, 380, 1696], [344, 106, 1697], [303, 959, 1698], [1406, 402, 1699], [327, 342, 1700], [115, 408, 1701], [111, 256, 1702], [70, 256, 1703], [111, 330, 1704], [355, 318, 1705], [678, 507, 1706], [792, 115, 1707], [53, 256, 1708], [294, 606, 1709], [1083, 119, 1710], [513, 293, 1711], [101, 405, 1712], [482, 1200, 1713], [743, 829, 1714], [102, 102, 1715], [334, 477, 1716], [623, 460, 1717], [969, 326, 1718], [1540, 1380, 1719], [405, 389, 1720], [103, 367, 1721], [344, 735, 1722], [326, 1382, 1723], [101, 382, 1724], [394, 299, 1725], [96, 550, 1726], [1065, 305, 1727], [1085, 1239, 1728], [99, 1415, 1729], [302, 523, 1730], [81, 889, 1731], [67, 104, 1732], [1691, 1730, 1733], [319, 293, 1734], [403, 384, 1735], [1488, 576, 1736], [351, 330, 1737], [670, 577, 1738], [352, 44, 1739], [103, 715, 1740], [938, 564, 1741], [1070, 340, 1742], [57, 46, 1743], [582, 480, 1744], [1291, 295, 1745], [1743, 46, 1746], [354, 300, 1747], [707, 591, 1748], [1043, 295, 1749], [394, 334, 1750], [64, 1027, 1751], [410, 100, 1752], [713, 414, 1753], [1740, 1689, 1754], [1754, 1746, 1755], [779, 573, 1756], [793, 315, 1757], [802, 995, 1758], [307, 548, 1759], [574, 598, 1760], [396, 985, 1761], [1446, 566, 1762], [329, 554, 1763], [64, 99, 1764], [1347, 406, 1765], [523, 471, 1766], [581, 56, 1767], [774, 432, 1768], [96, 101, 1769], [293, 342, 1770], [616, 658, 1771], [628, 937, 1772], [1072, 97, 1773], [100, 477, 1774], [792, 417, 1775], [98, 330, 1776], [1274, 493, 1777], [1423, 573, 1778], [103, 1720, 1779], [110, 98, 1780], [104, 323, 1781], [367, 577, 1782], [115, 803, 1783], [861, 380, 1784], [947, 417, 1785], [466, 365, 1786], [331, 475, 1787], [97, 647, 1788], [467, 795, 1789], [951, 365, 1790], [101, 421, 1791], [101, 335, 1792], [301, 300, 1793], [39, 76, 1794], [1586, 335, 1795], [1252, 690, 1796], [350, 340, 1797], [333, 608, 1798], [787, 1050, 1799], [704, 1709, 1800], [348, 324, 1801], [1296, 652, 1802], [510, 821, 1803], [1399, 515, 1804], [107, 495, 1805], [1422, 400, 1806], [108, 377, 1807], [392, 69, 1808], [103, 677, 1809], [869, 483, 1810], [120, 317, 1811], [1040, 668, 1812], [312, 107, 1813], [313, 763, 1814], [303, 931, 1815], [55, 256, 1816], [786, 355, 1817], [1207, 323, 1818], [102, 293, 1819], [428, 406, 1820], [560, 323, 1821], [736, 324, 1822], [1322, 1337, 1823], [641, 1414, 1824], [114, 110, 1825], [322, 318, 1826], [331, 411, 1827], [439, 382, 1828], [424, 99, 1829], [1010, 478, 1830], [107, 319, 1831], [1339, 470, 1832], [294, 1136, 1833], [720, 687, 1834], [1450, 310, 1835], [64, 72, 1836], [108, 375, 1837], [308, 419, 1838], [294, 117, 1839], [70, 338, 1840], [387, 369, 1841], [294, 323, 1842], [463, 324, 1843], [852, 362, 1844], [971, 887, 1845], [361, 1015, 1846], [106, 44, 1847], [900, 445, 1848], [303, 1463, 1849], [345, 1712, 1850], [321, 44, 1851], [97, 615, 1852], [484, 480, 1853], [431, 985, 1854], [303, 323, 1855], [100, 297, 1856], [304, 307, 1857], [116, 340, 1858], [67, 100, 1859], [98, 303, 1860], [382, 426, 1861], [394, 776, 1862], [297, 726, 1863], [1398, 1737, 1864], [452, 256, 1865], [414, 505, 1866], [368, 1336, 1867], [35, 307, 1868], [600, 519, 1869], [602, 295, 1870], [306, 628, 1871], [920, 100, 1872], [996, 533, 1873], [1133, 453, 1874], [303, 471, 1875], [520, 320, 1876], [441, 843, 1877], [107, 294, 1878], [657, 310, 1879], [1098, 310, 1880], [118, 294, 1881], [379, 115, 1882], [113, 333, 1883], [605, 1268, 1884], [1271, 717, 1885], [514, 327, 1886], [910, 378, 1887], [605, 1569, 1888], [102, 1867, 1889], [1125, 314, 1890], [345, 1829, 1891], [1889, 45, 1892], [120, 419, 1893], [1194, 327, 1894], [44, 48, 1895], [587, 707, 1896], [1425, 323, 1897], [98, 331, 1898], [294, 777, 1899], [972, 408, 1900], [670, 341, 1901], [955, 380, 1902], [1329, 1516, 1903], [51, 45, 1904], [1286, 293, 1905], [1318, 395, 1906], [403, 106, 1907], [701, 295, 1908], [106, 1521, 1909], [39, 66, 1910], [303, 648, 1911], [103, 104, 1912], [401, 318, 1913], [521, 335, 1914], [101, 675, 1915], [1553, 507, 1916], [79, 312, 1917], [354, 293, 1918], [60, 256, 1919], [891, 295, 1920], [375, 578, 1921], [1185, 453, 1922], [1235, 529, 1923], [1444, 473, 1924], [1644, 453, 1925], [76, 64, 1926], [113, 313, 1927], [98, 311, 1928], [118, 479, 1929], [913, 314, 1930], [545, 1229, 1931], [308, 44, 1932], [598, 607, 1933], [767, 411, 1934], [1850, 332, 1935], [294, 1113, 1936], [1282, 316, 1937], [899, 1335, 1938], [1736, 418, 1939], [396, 1856, 1940], [305, 318, 1941], [423, 44, 1942], [403, 473, 1943], [102, 937, 1944], [303, 101, 1945], [82, 83, 1946], [351, 967, 1947], [103, 311, 1948], [912, 445, 1949], [1060, 659, 1950], [124, 256, 1951], [441, 115, 1952], [593, 104, 1953], [1547, 507, 1954], [366, 1773, 1955], [70, 735, 1956], [474, 1104, 1957], [99, 316, 1958], [350, 302, 1959], [116, 374, 1960], [294, 487, 1961], [562, 314, 1962], [357, 114, 1963], [115, 116, 1964], [510, 777, 1965], [1726, 506, 1966], [315, 1858, 1967], [121, 980, 1968], [40, 317, 1969], [530, 414, 1970], [514, 634, 1971], [1003, 346, 1972], [1129, 293, 1973], [1400, 994, 1974], [296, 1188, 1975], [64, 84, 1976], [740, 107, 1977], [72, 305, 1978], [109, 334, 1979], [1130, 108, 1980], [1493, 349, 1981], [850, 295, 1982], [1478, 323, 1983], [113, 319, 1984], [104, 650, 1985], [1795, 348, 1986], [114, 106, 1987], [372, 104, 1988], [1378, 296, 1989], [511, 300, 1990], [392, 870, 1991], [403, 976, 1992], [1022, 1094, 1993], [115, 409, 1994], [84, 256, 1995], [299, 100, 1996], [44, 256, 1997], [553, 358, 1998], [1148, 507, 1999], [620, 1653, 2000], [326, 554, 2001], [294, 1224, 2002], [1437, 370, 2003], [361, 927, 2004], [120, 1518, 2005], [496, 311, 2006], [943, 660, 2007], [1620, 492, 2008], [1813, 357, 2009], [308, 341, 2010], [331, 372, 2011], [1435, 505, 2012], [83, 44, 2013], [114, 347, 2014], [296, 429, 2015], [761, 306, 2016], [294, 1313, 2017], [93, 122, 2018], [39, 104, 2019], [513, 46, 2020], [294, 315, 2021], [334, 464, 2022], [1130, 365, 2023], [35, 44, 2024], [82, 64, 2025], [1283, 256, 2026], [1334, 115, 2027], [623, 366, 2028], [1058, 327, 2029], [77, 256, 2030], [767, 903, 2031], [1600, 377, 2032], [424, 363, 2033], [1236, 326, 2034], [1864, 473, 2035], [327, 376, 2036], [714, 321, 2037], [942, 316, 2038], [559, 349, 2039], [840, 771, 2040], [587, 664, 2041], [596, 1393, 2042], [100, 363, 2043], [305, 342, 2044], [1212, 747, 2045], [1469, 358, 2046], [1564, 438, 2047], [423, 606, 2048], [739, 555, 2049], [329, 1593, 2050], [296, 44, 2051], [327, 391, 2052], [776, 341, 2053], [301, 831, 2054], [309, 317, 2055], [1062, 97, 2056], [303, 329, 2057], [316, 391, 2058], [298, 1682, 2059], [1892, 2020, 2060], [110, 300, 2061], [343, 363, 2062], [39, 48, 2063], [79, 67, 2064], [399, 533, 2065], [597, 106, 2066], [44, 1001, 2067], [791, 323, 2068], [694, 1115, 2069], [411, 1396, 2070], [1458, 518, 2071], [681, 1362, 2072], [1058, 314, 2073], [52, 45, 2074], [359, 512, 2075], [686, 586, 2076], [1605, 507, 2077], [352, 307, 2078], [374, 44, 2079], [590, 1136, 2080], [694, 293, 2081], [117, 314, 2082], [340, 305, 2083], [1299, 1617, 2084], [111, 301, 2085], [496, 102, 2086], [895, 1454, 2087], [1668, 310, 2088], [1755, 2060, 2089], [433, 104, 2090], [708, 395, 2091], [482, 1647, 2092], [80, 118, 2093], [102, 506, 2094], [972, 306, 2095], [96, 119, 2096], [581, 47, 2097], [841, 44, 2098], [1862, 1053, 2099], [1640, 320, 2100], [1546, 747, 2101], [410, 107, 2102], [299, 671, 2103], [921, 663, 2104], [98, 100, 2105], [353, 644, 2106], [967, 314, 2107], [1107, 2010, 2108], [863, 327, 2109], [359, 1310, 2110], [1497, 365, 2111], [2014, 110, 2112], [118, 609, 2113], [950, 316, 2114], [81, 344, 2115], [96, 415, 2116], [575, 434, 2117], [40, 646, 2118], [1367, 400, 2119], [361, 1809, 2120], [117, 486, 2121], [100, 101, 2122], [531, 406, 2123], [954, 424, 2124], [873, 631, 2125], [304, 994, 2126], [835, 456, 2127], [1338, 809, 2128], [299, 480, 2129], [840, 1863, 2130], [315, 450, 2131], [361, 462, 2132], [1272, 305, 2133], [107, 301, 2134], [294, 372, 2135], [924, 312, 2136], [298, 2110, 2137], [1886, 655, 2138], [1373, 652, 2139], [1440, 341, 2140], [1626, 473, 2141], [1633, 572, 2142], [369, 318, 2143], [1539, 984, 2144], [329, 1678, 2145], [101, 388, 2146], [636, 371, 2147], [303, 855, 2148], [989, 483, 2149], [590, 1113, 2150], [534, 1502, 2151], [1722, 293, 2152], [101, 432, 2153], [454, 332, 2154], [925, 330, 2155], [111, 375, 2156], [311, 532, 2157], [1849, 552, 2158], [394, 304, 2159], [1004, 450, 2160], [1387, 776, 2161], [774, 118, 2162], [81, 78, 2163], [331, 119, 2164], [103, 635, 2165], [1299, 1261, 2166], [321, 98, 2167], [349, 39, 2168], [1071, 121, 2169], [1121, 299, 2170], [1573, 382, 2171], [1783, 1238, 2172], [374, 2157, 2173], [347, 594, 2174], [108, 974, 2175], [76, 75, 2176], [1148, 319, 2177], [118, 1407, 2178], [1613, 337, 2179], [99, 328, 2180], [387, 314, 2181], [295, 463, 2182], [97, 312, 2183], [322, 324, 2184], [294, 340, 2185], [1349, 384, 2186], [116, 331, 2187], [333, 429, 2188], [678, 310, 2189], [520, 1179, 2190], [1940, 417, 2191], [299, 297, 2192], [115, 660, 2193], [739, 1792, 2194], [710, 2043, 2195], [386, 364, 2196], [110, 551, 2197], [451, 794, 2198], [1151, 116, 2199], [367, 104, 2200], [398, 327, 2201], [420, 293, 2202], [1302, 770, 2203], [109, 96, 2204], [371, 111, 2205], [118, 416, 2206], [623, 298, 2207], [65, 653, 2208], [393, 108, 2209], [449, 121, 2210], [313, 483, 2211], [762, 909, 2212], [301, 103, 2213], [978, 490, 2214], [682, 306, 2215], [424, 378, 2216], [2153, 451, 2217], [325, 392, 2218], [476, 379, 2219], [477, 844, 2220], [1142, 659, 2221], [379, 111, 2222], [1501, 1169, 2223], [101, 122, 2224], [106, 295, 2225], [730, 429, 2226], [723, 318, 2227], [600, 770, 2228], [351, 1697, 2229], [118, 299, 2230], [115, 369, 2231], [791, 316, 2232], [1290, 383, 2233], [380, 348, 2234], [343, 703, 2235], [1778, 552, 2236], [326, 295, 2237], [98, 460, 2238], [1956, 1365, 2239], [361, 379, 2240], [68, 109, 2241], [431, 311, 2242], [648, 367, 2243], [345, 1333, 2244], [511, 1642, 2245], [1302, 2053, 2246], [97, 333, 2247], [333, 116, 2248], [107, 692, 2249], [2172, 394, 2250], [314, 342, 2251], [720, 506, 2252], [579, 837, 2253], [66, 72, 2254], [841, 307, 2255], [442, 961, 2256], [714, 1145, 2257], [1552, 483, 2258], [1146, 1669, 2259], [1994, 609, 2260], [54, 256, 2261], [108, 489, 2262], [778, 309, 2263], [581, 55, 2264], [713, 305, 2265], [773, 318, 2266], [108, 777, 2267], [1769, 734, 2268], [797, 497, 2269], [97, 1152, 2270], [103, 1170, 2271], [1352, 729, 2272], [1507, 402, 2273], [531, 1531, 2274], [1912, 2103, 2275], [100, 45, 2276], [91, 36, 2277], [492, 323, 2278], [343, 667, 2279], [431, 748, 2280], [768, 324, 2281], [1020, 366, 2282], [352, 1312, 2283], [315, 505, 2284], [752, 320, 2285], [2037, 846, 2286], [1006, 1078, 2287], [2185, 1031, 2288], [98, 471, 2289], [304, 521, 2290], [898, 486, 2291], [366, 998, 2292], [452, 1681, 2293], [497, 426, 2294], [101, 521, 2295], [364, 595, 2296], [97, 313, 2297], [334, 500, 2298], [1070, 655, 2299], [1220, 256, 2300], [66, 64, 2301], [334, 297, 2302], [306, 405, 2303], [447, 365, 2304], [107, 499, 2305], [336, 555, 2306], [1187, 459, 2307], [494, 108, 2308], [101, 1030, 2309], [1293, 450, 2310], [1806, 310, 2311], [1040, 1119, 2312], [103, 479, 2313], [303, 667, 2314], [331, 769, 2315], [1839, 2302, 2316], [65, 301, 2317], [1404, 314, 2318], [416, 370, 2319], [454, 362, 2320], [1592, 426, 2321], [1772, 316, 2322], [85, 256, 2323], [978, 515, 2324], [115, 1024, 2325], [1158, 44, 2326], [1223, 349, 2327], [79, 72, 2328], [315, 96, 2329], [343, 102, 2330], [1699, 358, 2331], [1535, 914, 2332], [302, 44, 2333], [114, 306, 2334], [677, 360, 2335], [1348, 478, 2336], [354, 349, 2337], [381, 1996, 2338], [448, 308, 2339], [617, 666, 2340], [2146, 483, 2341], [303, 511, 2342], [411, 1525, 2343], [1742, 1496, 2344], [1968, 44, 2345], [2028, 607, 2346], [294, 2041, 2347], [368, 335, 2348], [568, 318, 2349], [2008, 110, 2350], [82, 115, 2351], [361, 320, 2352], [301, 374, 2353], [531, 2005, 2354], [381, 356, 2355], [1154, 367, 2356], [361, 1316, 2357], [1634, 304, 2358], [113, 320, 2359], [623, 297, 2360], [897, 566, 2361], [946, 628, 2362], [321, 117, 2363], [304, 615, 2364], [1911, 770, 2365], [52, 639, 2366], [311, 297, 2367], [1675, 358, 2368], [53, 45, 2369], [399, 321, 2370], [448, 256, 2371], [1064, 327, 2372], [403, 1203, 2373], [1563, 320, 2374], [54, 45, 2375], [108, 293, 2376], [114, 296, 2377], [1122, 310, 2378], [517, 459, 2379], [1280, 594, 2380], [343, 2156, 2381], [56, 256, 2382], [304, 331, 2383], [1038, 577, 2384], [1367, 544, 2385], [110, 99, 2386], [70, 81, 2387], [333, 341, 2388], [40, 419, 2389], [1580, 586, 2390], [107, 96, 2391], [303, 331, 2392], [96, 497, 2393], [1037, 104, 2394], [830, 734, 2395], [1002, 295, 2396], [324, 1139, 2397], [1249, 348, 2398], [1349, 988, 2399], [520, 109, 2400], [489, 293, 2401], [369, 548, 2402], [387, 758, 2403], [303, 963, 2404], [1197, 295, 2405], [1527, 293, 2406], [99, 406, 2407], [2059, 389, 2408], [316, 364, 2409], [307, 689, 2410], [44, 82, 2411], [500, 318, 2412], [1091, 532, 2413], [97, 2224, 2414], [325, 502, 2415], [98, 2192, 2416], [303, 99, 2417], [355, 655, 2418], [118, 1782, 2419], [427, 334, 2420], [2027, 1315, 2421], [754, 305, 2422], [76, 354, 2423], [102, 110, 2424], [103, 305, 2425], [820, 116, 2426], [345, 877, 2427], [434, 2129, 2428], [353, 341, 2429], [866, 318, 2430], [1109, 256, 2431], [1201, 349, 2432], [421, 300, 2433], [100, 464, 2434], [107, 940, 2435], [960, 256, 2436], [1655, 297, 2437], [443, 104, 2438], [627, 595, 2439], [403, 905, 2440], [1253, 374, 2441], [1410, 49, 2442], [2093, 301, 2443], [2186, 341, 2444], [2330, 359, 2445], [751, 293, 2446], [107, 44, 2447], [305, 348, 2448], [399, 558, 2449], [1033, 337, 2450], [317, 1284, 2451], [104, 341, 2452], [39, 741, 2453], [757, 304, 2454], [332, 920, 2455], [2011, 375, 2456], [306, 102, 2457], [313, 561, 2458], [91, 1579, 2459], [1698, 380, 2460], [330, 120, 2461], [946, 807, 2462], [1372, 116, 2463], [1723, 311, 2464], [2210, 406, 2465], [1233, 310, 2466], [1260, 303, 2467], [81, 334, 2468], [96, 414, 2469], [486, 316, 2470], [604, 333, 2471], [820, 1090, 2472], [78, 256, 2473], [2070, 2278, 2474], [899, 424, 2475], [1370, 652, 2476], [1199, 98, 2477], [1988, 424, 2478], [511, 2188, 2479], [375, 429, 2480], [312, 474, 2481], [1489, 612, 2482], [447, 108, 2483], [619, 314, 2484], [101, 881, 2485], [294, 1441, 2486], [1491, 573, 2487], [56, 45, 2488], [294, 114, 2489], [104, 119, 2490], [344, 296, 2491], [302, 1952, 2492], [2271, 118, 2493], [811, 349, 2494], [921, 1350, 2495], [1272, 1747, 2496], [303, 304, 2497], [1694, 360, 2498], [715, 2134, 2499], [2208, 100, 2500], [2252, 711, 2501], [1544, 356, 2502], [66, 44, 2503], [1766, 335, 2504], [64, 98, 2505], [714, 527, 2506], [785, 446, 2507], [91, 1328, 2508], [2226, 1149, 2509], [65, 110, 2510], [104, 570, 2511], [743, 613, 2512], [848, 907, 2513], [925, 110, 2514], [932, 344, 2515], [345, 1179, 2516], [977, 2435, 2517], [106, 316, 2518], [311, 529, 2519], [102, 562, 2520], [628, 1550, 2521], [1837, 109, 2522], [1891, 515, 2523], [69, 256, 2524], [1707, 349, 2525], [413, 1851, 2526], [97, 2152, 2527], [299, 307, 2528], [575, 96, 2529], [701, 369, 2530], [102, 1238, 2531], [1468, 533, 2532], [67, 64, 2533], [296, 110, 2534], [423, 884, 2535], [1882, 1005, 2536], [114, 2384, 2537], [102, 303, 2538], [347, 628, 2539], [105, 645, 2540], [702, 314, 2541], [1614, 300, 2542], [309, 419, 2543], [545, 106, 2544], [975, 314, 2545], [75, 2401, 2546], [2500, 1365, 2547], [345, 326, 2548], [764, 121, 2549], [2180, 655, 2550], [93, 49, 2551], [457, 651, 2552], [925, 416, 2553], [1244, 323, 2554], [1603, 612, 2555], [441, 104, 2556], [539, 256, 2557], [94, 122, 2558], [308, 116, 2559], [327, 39, 2560], [47, 639, 2561], [987, 101, 2562], [2522, 2248, 2563], [431, 306, 2564], [317, 1080, 2565], [303, 1566, 2566], [1607, 323, 2567], [2269, 301, 2568], [55, 45, 2569], [467, 674, 2570], [788, 318, 2571], [1515, 807, 2572], [2423, 297, 2573], [298, 303, 2574], [347, 303, 2575], [118, 695, 2576], [379, 315, 2577], [325, 464, 2578], [374, 406, 2579], [1122, 729, 2580], [68, 68, 2581], [99, 338, 2582], [299, 369, 2583], [314, 376, 2584], [316, 407, 2585], [806, 324, 2586], [844, 324, 2587], [76, 72, 2588], [382, 577, 2589], [484, 401, 2590], [1599, 300, 2591], [303, 1686, 2592], [1377, 434, 2593], [83, 338, 2594], [383, 385, 2595], [446, 318, 2596], [581, 54, 2597], [823, 318, 2598], [923, 316, 2599], [474, 2499, 2600], [299, 316, 2601], [321, 101, 2602], [343, 878, 2603], [1075, 305, 2604], [587, 1141, 2605], [44, 1172, 2606], [383, 421, 2607], [345, 1676, 2608], [78, 111, 2609], [75, 64, 2610], [100, 594, 2611], [712, 103, 2612], [767, 304, 2613], [904, 256, 2614], [957, 498, 2615], [1241, 349, 2616], [753, 1248, 2617], [79, 64, 2618], [327, 407, 2619], [104, 425, 2620], [115, 452, 2621], [642, 324, 2622], [702, 442, 2623], [114, 817, 2624], [1583, 118, 2625], [1456, 316, 2626], [1732, 415, 2627], [636, 532, 2628], [863, 314, 2629], [392, 1080, 2630], [1273, 527, 2631], [1578, 323, 2632], [1583, 804, 2633], [68, 81, 2634], [338, 297, 2635], [345, 98, 2636], [352, 369, 2637], [102, 756, 2638], [2253, 305, 2639], [2512, 831, 2640], [520, 1102, 2641], [76, 82, 2642], [484, 323, 2643], [1252, 455, 2644], [2238, 957, 2645], [404, 663, 2646], [361, 994, 2647], [2170, 507, 2648], [110, 117, 2649], [114, 408, 2650], [295, 563, 2651], [798, 314, 2652], [950, 314, 2653], [1142, 506, 2654], [431, 377, 2655], [1164, 417, 2656], [1196, 307, 2657], [539, 1496, 2658], [303, 44, 2659], [510, 1120, 2660], [393, 1715, 2661], [85, 104, 2662], [116, 305, 2663], [461, 293, 2664], [1216, 324, 2665], [321, 1575, 2666], [482, 1831, 2667], [80, 116, 2668], [301, 529, 2669], [345, 117, 2670], [339, 2113, 2671], [2329, 473, 2672], [359, 2413, 2673], [357, 411, 2674], [1003, 358, 2675], [2217, 1499, 2676], [116, 532, 2677], [1371, 313, 2678], [1616, 1081, 2679], [2165, 306, 2680], [670, 2447, 2681], [307, 370, 2682], [110, 606, 2683], [697, 341, 2684], [797, 1267, 2685], [1524, 631, 2686], [325, 477, 2687], [83, 82, 2688], [500, 324, 2689], [113, 539, 2690], [103, 1137, 2691], [720, 1417, 2692], [2216, 426, 2693], [485, 44, 2694], [75, 765, 2695], [1085, 303, 2696], [1215, 447, 2697], [396, 1015, 2698], [303, 1601, 2699], [2661, 647, 2700], [509, 108, 2701], [513, 327, 2702], [537, 662, 2703], [366, 737, 2704], [1947, 566, 2705], [2455, 2575, 2706], [83, 110, 2707], [306, 320, 2708], [115, 353, 2709], [96, 645, 2710], [771, 505, 2711], [869, 815, 2712], [752, 1965, 2713], [2006, 44, 2714], [444, 318, 2715], [115, 632, 2716], [331, 307, 2717], [423, 399, 2718], [1124, 453, 2719], [1274, 2388, 2720], [1077, 719, 2721], [1449, 314, 2722], [1131, 1770, 2723], [50, 44, 2724], [117, 327, 2725], [736, 318, 2726], [786, 588, 2727], [848, 1150, 2728], [334, 614, 2729], [326, 637, 2730], [686, 120, 2731], [332, 470, 2732], [576, 1383, 2733], [109, 299, 2734], [315, 120, 2735], [75, 422, 2736], [833, 1127, 2737], [96, 395, 2738], [702, 316, 2739], [304, 794, 2740], [1141, 453, 2741], [992, 1165, 2742], [98, 1278, 2743], [357, 1865, 2744], [919, 104, 2745], [945, 711, 2746], [1491, 294, 2747], [2338, 416, 2748], [2356, 299, 2749], [2471, 306, 2750], [39, 67, 2751], [315, 306, 2752], [326, 115, 2753], [326, 107, 2754], [873, 434, 2755], [374, 2094, 2756], [2288, 660, 2757], [78, 79, 2758], [769, 110, 2759], [98, 1014, 2760], [1077, 2683, 2761], [419, 318, 2762], [91, 639, 2763], [761, 302, 2764], [1387, 572, 2765], [1487, 256, 2766], [434, 1819, 2767], [2144, 341, 2768], [2303, 1842, 2769], [100, 2348, 2770], [115, 122, 2771], [418, 323, 2772], [1474, 647, 2773], [298, 104, 2774], [315, 307, 2775], [392, 82, 2776], [326, 687, 2777], [762, 490, 2778], [913, 327, 2779], [102, 1498, 2780], [1990, 376, 2781], [2313, 2407, 2782], [329, 321, 2783], [579, 1350, 2784], [1800, 435, 2785], [98, 120, 2786], [297, 114, 2787], [101, 333, 2788], [302, 789, 2789], [814, 490, 2790], [1189, 1579, 2791], [1812, 310, 2792], [1945, 594, 2793], [1020, 2591, 2794], [435, 320, 2795], [730, 763, 2796], [1178, 327, 2797], [1585, 99, 2798], [1645, 478, 2799], [1872, 1531, 2800], [2000, 365, 2801], [2457, 302, 2802], [2577, 1106, 2803], [454, 306, 2804], [315, 568, 2805], [685, 478, 2806], [1300, 408, 2807], [441, 383, 2808], [623, 540, 2809], [124, 646, 2810], [657, 499, 2811], [697, 335, 2812], [2603, 314, 2813], [2638, 109, 2814], [115, 302, 2815], [295, 444, 2816], [724, 325, 2817], [917, 311, 2818], [388, 293, 2819], [619, 450, 2820], [683, 401, 2821], [101, 930, 2822], [1022, 1240, 2823], [1721, 801, 2824], [2147, 687, 2825], [366, 2377, 2826], [2400, 323, 2827], [74, 256, 2828], [380, 322, 2829], [398, 335, 2830], [379, 421, 2831], [435, 313, 2832], [537, 309, 2833], [330, 560, 2834], [562, 316, 2835], [118, 1321, 2836], [1527, 314, 2837], [2789, 304, 2838], [320, 417, 2839], [464, 430, 2840], [345, 565, 2841], [2178, 341, 2842], [305, 324, 2843], [351, 442, 2844], [403, 466, 2845], [120, 477, 2846], [852, 909, 2847], [78, 914, 2848], [945, 316, 2849], [1359, 354, 2850], [1909, 566, 2851], [350, 487, 2852], [1339, 323, 2853], [52, 44, 2854], [383, 393, 2855], [1126, 385, 2856], [1218, 316, 2857], [2174, 1019, 2858], [2213, 572, 2859], [39, 49, 2860], [115, 450, 2861], [343, 2308, 2862], [98, 113, 2863], [104, 256, 2864], [409, 445, 2865], [398, 965, 2866], [1352, 363, 2867], [2670, 361, 2868], [307, 407, 2869], [522, 101, 2870], [1273, 956, 2871], [1433, 305, 2872], [70, 301, 2873], [707, 480, 2874], [585, 1567, 2875], [294, 2199, 2876], [349, 355, 2877], [315, 375, 2878], [393, 333, 2879], [68, 66, 2880], [357, 110, 2881], [114, 394, 2882], [1532, 44, 2883], [2516, 892, 2884], [345, 404, 2885], [318, 1193, 2886], [1621, 426, 2887], [2100, 310, 2888], [299, 328, 2889], [392, 65, 2890], [511, 323, 2891], [707, 325, 2892], [751, 332, 2893], [828, 296, 2894], [50, 894, 2895], [2695, 505, 2896], [110, 383, 2897], [978, 1005, 2898], [2120, 493, 2899], [2136, 1345, 2900], [65, 44, 2901], [48, 49, 2902], [67, 422, 2903], [294, 491, 2904], [369, 595, 2905], [1513, 256, 2906], [1758, 456, 2907], [374, 307, 2908], [114, 483, 2909], [466, 1671, 2910], [1718, 417, 2911], [1724, 447, 2912], [77, 72, 2913], [372, 499, 2914], [549, 348, 2915], [975, 293, 2916], [1260, 1239, 2917], [1052, 1403, 2918], [2824, 644, 2919], [48, 44, 2920], [320, 1215, 2921], [1529, 552, 2922], [2353, 1536, 2923], [103, 122, 2924], [82, 82, 2925], [391, 324, 2926], [104, 422, 2927], [303, 451, 2928], [673, 331, 2929], [369, 689, 2930], [294, 814, 2931], [91, 893, 2932], [410, 2107, 2933], [2932, 2924, 2934], [874, 1635, 2935], [2710, 333, 2936], [338, 111, 2937], [452, 406, 2938], [114, 627, 2939], [861, 661, 2940], [1713, 770, 2941], [625, 527, 2942], [1443, 506, 2943], [1944, 406, 2944], [2502, 2089, 2945], [790, 2620, 2946], [97, 360, 2947], [450, 342, 2948], [572, 517, 2949], [708, 106, 2950], [531, 1711, 2951], [1939, 335, 2952], [2647, 323, 2953], [922, 483, 2954], [2275, 507, 2955], [320, 309, 2956], [114, 336, 2957], [102, 371, 2958], [944, 295, 2959], [1397, 335, 2960], [1497, 108, 2961], [579, 2559, 2962], [347, 321, 2963], [534, 113, 2964], [869, 485, 2965], [366, 1333, 2966], [1377, 442, 2967], [2285, 426, 2968], [374, 446, 2969], [77, 544, 2970], [302, 801, 2971], [379, 1383, 2972], [1725, 310, 2973], [1166, 1741, 2974], [1972, 813, 2975], [75, 72, 2976], [104, 370, 2977], [384, 113, 2978], [315, 666, 2979], [960, 1188, 2980], [2283, 310, 2981], [2568, 631, 2982], [405, 445, 2983], [542, 540, 2984], [116, 558, 2985], [1035, 789, 2986], [1343, 903, 2987], [375, 301, 2988], [493, 355, 2989], [97, 708, 2990], [107, 1152, 2991], [1658, 533, 2992], [1735, 1962, 2993], [2009, 388, 2994], [1101, 2446, 2995], [39, 79, 2996], [293, 322, 2997], [68, 422, 2998], [727, 315, 2999], [2875, 1793, 3000], [121, 2889, 3001], [48, 53, 3002], [312, 118, 3003], [58, 603, 3004], [2441, 801, 3005], [2485, 297, 3006], [346, 2579, 3007], [39, 83, 3008], [316, 322, 3009], [371, 102, 3010], [108, 388, 3011], [301, 450, 3012], [581, 53, 3013], [938, 501, 3014], [2117, 2270, 3015], [33, 256, 3016], [39, 69, 3017], [38, 256, 3018], [340, 380, 3019], [304, 383, 3020], [97, 493, 3021], [371, 634, 3022], [811, 568, 3023], [955, 309, 3024], [1075, 115, 3025], [511, 1389, 3026], [1101, 3022, 3027], [411, 105, 3028], [302, 446, 3029], [118, 1103, 3030], [403, 1229, 3031], [1761, 342, 3032], [2075, 98, 3033], [2870, 456, 3034], [1634, 323, 3035], [1641, 1280, 3036], [2112, 298, 3037], [2115, 362, 3038], [2161, 505, 3039], [468, 305, 3040], [492, 341, 3041], [839, 522, 3042], [1233, 729, 3043], [2267, 102, 3044], [97, 113, 3045], [343, 119, 3046], [356, 324, 3047], [347, 380, 3048], [419, 324, 3049], [101, 940, 3050], [972, 1011, 3051], [921, 1152, 3052], [2640, 1381, 3053], [542, 2669, 3054], [96, 104, 3055], [760, 909, 3056], [1604, 1090, 3057], [327, 358, 3058], [387, 307, 3059], [35, 603, 3060], [617, 510, 3061], [338, 804, 3062], [911, 2065, 3063], [108, 319, 3064], [296, 323, 3065], [347, 340, 3066], [375, 352, 3067], [375, 303, 3068], [393, 295, 3069], [503, 453, 3070], [1219, 349, 3071], [1370, 385, 3072], [1797, 401, 3073], [316, 358, 3074], [120, 464, 3075], [345, 625, 3076], [666, 342, 3077], [785, 661, 3078], [345, 1244, 3079], [1791, 521, 3080], [117, 311, 3081], [347, 497, 3082], [2048, 533, 3083], [2508, 2414, 3084], [2815, 100, 3085], [317, 68, 3086], [97, 338, 3087], [530, 303, 3088], [100, 614, 3089], [759, 495, 3090], [107, 794, 3091], [1020, 379, 3092], [2892, 2280, 3093], [294, 429, 3094], [462, 578, 3095], [448, 651, 3096], [1004, 666, 3097], [1223, 480, 3098], [1481, 362, 3099], [339, 403, 3100], [730, 335, 3101], [773, 324, 3102], [797, 305, 3103], [1587, 256, 3104], [85, 633, 3105], [476, 727, 3106], [1182, 958, 3107], [548, 1890, 3108], [1095, 1943, 3109], [2988, 473, 3110], [79, 303, 3111], [304, 110, 3112], [402, 293, 3113], [570, 459, 3114], [581, 52, 3115], [1003, 585, 3116], [1524, 719, 3117], [403, 105, 3118], [496, 468, 3119], [100, 500, 3120], [916, 711, 3121], [2276, 102, 3122], [39, 91, 3123], [798, 316, 3124], [465, 2383, 3125], [70, 64, 3126], [101, 304, 3127], [429, 553, 3128], [616, 305, 3129], [825, 362, 3130], [321, 1084, 3131], [1162, 295, 3132], [1883, 1106, 3133], [2345, 2133, 3134], [64, 107, 3135], [315, 325, 3136], [96, 326, 3137], [396, 437, 3138], [497, 367, 3139], [778, 662, 3140], [702, 864, 3141], [884, 358, 3142], [1354, 314, 3143], [1692, 2205, 3144], [2760, 306, 3145], [117, 406, 3146], [971, 293, 3147], [1002, 369, 3148], [1236, 410, 3149], [1750, 380, 3150], [1573, 2452, 3151], [2709, 1019, 3152], [2090, 3034, 3153], [68, 44, 3154], [67, 79, 3155], [329, 577, 3156], [333, 1246, 3157], [1045, 1861, 3158], [1960, 1294, 3159], [1147, 2061, 3160], [2370, 328, 3161], [66, 79, 3162], [45, 307, 3163], [116, 315, 3164], [338, 340, 3165], [1511, 319, 3166], [1623, 1090, 3167], [2534, 347, 3168], [320, 394, 3169], [79, 421, 3170], [374, 434, 3171], [564, 437, 3172], [701, 44, 3173], [392, 847, 3174], [1330, 310, 3175], [1435, 375, 3176], [623, 1985, 3177], [101, 2428, 3178], [428, 335, 3179], [587, 293, 3180], [863, 380, 3181], [850, 369, 3182], [1101, 303, 3183], [113, 1918, 3184], [115, 323, 3185], [1060, 316, 3186], [1154, 631, 3187], [697, 1334, 3188], [1830, 1933, 3189], [2735, 360, 3190], [2784, 316, 3191], [480, 444, 3192], [489, 116, 3193], [869, 612, 3194], [869, 1248, 3195], [1710, 115, 3196], [2289, 293, 3197], [2316, 1345, 3198], [81, 110, 3199], [66, 103, 3200], [76, 311, 3201], [107, 330, 3202], [522, 470, 3203], [537, 661, 3204], [1967, 327, 3205], [39, 64, 3206], [115, 312, 3207], [305, 322, 3208], [117, 323, 3209], [1649, 658, 3210], [2464, 426, 3211], [2539, 445, 3212], [2845, 403, 3213], [303, 3116, 3214], [39, 75, 3215], [98, 313, 3216], [113, 568, 3217], [118, 653, 3218], [719, 1005, 3219], [386, 1089, 3220], [1909, 367, 3221], [315, 2928, 3222], [98, 3133, 3223], [76, 100, 3224], [111, 332, 3225], [83, 422, 3226], [474, 687, 3227], [477, 772, 3228], [81, 847, 3229], [1309, 324, 3230], [118, 96, 3231], [607, 772, 3232], [1504, 310, 3233], [2086, 591, 3234], [311, 108, 3235], [303, 372, 3236], [692, 691, 3237], [84, 990, 3238], [1006, 998, 3239], [2817, 470, 3240], [96, 44, 3241], [36, 307, 3242], [344, 395, 3243], [1103, 405, 3244], [97, 1112, 3245], [2126, 591, 3246], [1641, 3156, 3247], [299, 363, 3248], [86, 368, 3249], [327, 463, 3250], [955, 892, 3251], [636, 1106, 3252], [1443, 300, 3253], [1875, 327, 3254], [303, 103, 3255], [402, 314, 3256], [479, 301, 3257], [873, 334, 3258], [708, 976, 3259], [983, 299, 3260], [108, 1308, 3261], [1907, 327, 3262], [2563, 554, 3263], [81, 72, 3264], [413, 415, 3265], [441, 554, 3266], [102, 1457, 3267], [2056, 296, 3268], [101, 2164, 3269], [2392, 330, 3270], [2700, 376, 3271], [39, 35, 3272], [302, 351, 3273], [754, 380, 3274], [304, 783, 3275], [1298, 401, 3276], [1476, 349, 3277], [1124, 1629, 3278], [1915, 909, 3279], [39, 77, 3280], [295, 571, 3281], [999, 1170, 3282], [2352, 1061, 3283], [2623, 578, 3284], [69, 76, 3285], [331, 102, 3286], [641, 107, 3287], [704, 346, 3288], [311, 801, 3289], [1359, 460, 3290], [361, 2105, 3291], [2390, 362, 3292], [91, 2420, 3293], [2896, 1887, 3294], [117, 316, 3295], [379, 114, 3296], [102, 400, 3297], [394, 411, 3298], [451, 97, 3299], [657, 748, 3300], [911, 104, 3301], [1091, 341, 3302], [98, 455, 3303], [421, 456, 3304], [1322, 766, 3305], [340, 2141, 3306], [311, 2247, 3307], [2394, 790, 3308], [2497, 1081, 3309], [2609, 427, 3310], [2852, 323, 3311], [66, 78, 3312], [350, 44, 3313], [407, 370, 3314], [442, 352, 3315], [411, 452, 3316], [1340, 256, 3317], [1713, 519, 3318], [2121, 408, 3319], [543, 2787, 3320], [294, 2987, 3321], [72, 67, 3322], [315, 371, 3323], [538, 115, 3324], [953, 318, 3325], [1227, 527, 3326], [1270, 659, 3327], [2544, 2200, 3328], [64, 79, 3329], [393, 102, 3330], [1235, 527, 3331], [954, 1572, 3332], [1604, 388, 3333], [2730, 341, 3334], [496, 332, 3335], [724, 349, 3336], [435, 967, 3337], [1072, 109, 3338], [1753, 1499, 3339], [116, 312, 3340], [107, 327, 3341], [345, 413, 3342], [559, 293, 3343], [955, 662, 3344], [1057, 352, 3345], [1574, 517, 3346], [2121, 306, 3347], [3030, 44, 3348], [294, 3100, 3349], [304, 295, 3350], [434, 102, 3351], [767, 332, 3352], [809, 788, 3353], [557, 1278, 3354], [113, 2187, 3355], [114, 118, 3356], [294, 321, 3357], [1852, 395, 3358], [2056, 783, 3359], [2183, 411, 3360], [2978, 2489, 3361], [3330, 2999, 3362], [474, 110, 3363], [1277, 568, 3364], [1468, 831, 3365], [2040, 310, 3366], [316, 780, 3367], [970, 314, 3368], [1065, 446, 3369], [2021, 572, 3370], [2249, 540, 3371], [1718, 2294, 3372], [3088, 305, 3373], [294, 300, 3374], [103, 609, 3375], [768, 318, 3376], [1610, 310, 3377], [1672, 104, 3378], [1676, 719, 3379], [1035, 3168, 3380], [85, 64, 3381], [84, 44, 3382], [330, 417, 3383], [308, 464, 3384], [557, 301, 3385], [779, 691, 3386], [1064, 570, 3387], [1677, 323, 3388], [2009, 2663, 3389], [2868, 256, 3390], [387, 44, 3391], [423, 117, 3392], [298, 442, 3393], [496, 434, 3394], [821, 419, 3395], [1184, 293, 3396], [694, 1701, 3397], [2454, 777, 3398], [108, 2677, 3399], [2808, 310, 3400], [3081, 940, 3401], [3307, 113, 3402], [107, 314, 3403], [581, 48, 3404], [907, 310, 3405], [679, 1000, 3406], [98, 1103, 3407], [1752, 434, 3408], [1219, 1814, 3409], [1840, 1018, 3410], [2367, 694, 3411], [3061, 1081, 3412], [542, 298, 3413], [325, 614, 3414], [1481, 578, 3415], [1872, 444, 3416], [2135, 453, 3417], [2605, 527, 3418], [462, 3248, 3419], [313, 434, 3420], [1085, 650, 3421], [2363, 319, 3422], [520, 3073, 3423], [104, 110, 3424], [86, 306, 3425], [64, 388, 3426], [313, 429, 3427], [550, 102, 3428], [320, 662, 3429], [986, 318, 3430], [2034, 380, 3431], [379, 2230, 3432], [39, 81, 3433], [100, 671, 3434], [390, 692, 3435], [581, 904, 3436], [921, 674, 3437], [2233, 296, 3438], [354, 2734, 3439], [99, 113, 3440], [44, 69, 3441], [586, 323, 3442], [756, 690, 3443], [923, 549, 3444], [983, 799, 3445], [441, 1083, 3446], [1643, 316, 3447], [1672, 1039, 3448], [1753, 352, 3449], [1828, 305, 3450], [320, 2615, 3451], [98, 256, 3452], [78, 67, 3453], [642, 318, 3454], [915, 299, 3455], [1098, 508, 3456], [1562, 327, 3457], [1655, 929, 3458], [2759, 479, 3459], [115, 361, 3460], [875, 316, 3461], [366, 962, 3462], [2076, 327, 3463], [2463, 892, 3464], [117, 3439, 3465], [64, 109, 3466], [304, 296, 3467], [345, 440, 3468], [688, 591, 3469], [351, 881, 3470], [96, 1267, 3471], [1348, 750, 3472], [2803, 408, 3473], [345, 3019, 3474], [413, 364, 3475], [454, 100, 3476], [639, 348, 3477], [761, 562, 3478], [789, 293, 3479], [924, 399, 3480], [1357, 295, 3481], [1542, 549, 3482], [114, 297, 3483], [351, 100, 3484], [81, 422, 3485], [379, 453, 3486], [294, 481, 3487], [315, 510, 3488], [599, 322, 3489], [331, 659, 3490], [294, 703, 3491], [752, 666, 3492], [396, 784, 3493], [877, 857, 3494], [101, 1268, 3495], [528, 1548, 3496], [1807, 256, 3497], [317, 1978, 3498], [828, 2470, 3499], [2774, 1176, 3500], [1097, 3085, 3501], [329, 44, 3502], [344, 305, 3503], [337, 476, 3504], [682, 108, 3505], [810, 517, 3506], [69, 1041, 3507], [1351, 369, 3508], [1825, 606, 3509], [590, 2067, 3510], [2137, 300, 3511], [694, 2193, 3512], [2300, 324, 3513], [3106, 551, 3514], [86, 100, 3515], [355, 342, 3516], [387, 502, 3517], [585, 316, 3518], [597, 310, 3519], [848, 879, 3520], [811, 907, 3521], [928, 533, 3522], [960, 335, 3523], [103, 979, 3524], [1461, 305, 3525], [1768, 316, 3526], [2649, 256, 3527], [2785, 316, 3528], [1571, 3229, 3529], [619, 556, 3530], [563, 690, 3531], [839, 490, 3532], [1097, 349, 3533], [457, 1153, 3534], [1144, 1463, 3535], [1660, 661, 3536], [1742, 425, 3537], [1095, 2373, 3538], [2986, 480, 3539], [3119, 97, 3540], [72, 66, 3541], [50, 47, 3542], [101, 357, 3543], [623, 718, 3544], [848, 716, 3545], [1552, 815, 3546], [2047, 1494, 3547], [2130, 349, 3548], [2731, 3446, 3549], [49, 44, 3550], [82, 76, 3551], [81, 302, 3552], [298, 313, 3553], [329, 311, 3554], [744, 716, 3555], [589, 838, 3556], [680, 957, 3557], [340, 1327, 3558], [39, 1582, 3559], [2708, 360, 3560], [1124, 2897, 3561], [107, 120, 3562], [680, 98, 3563], [724, 293, 3564], [76, 889, 3565], [1557, 327, 3566], [304, 3233, 3567], [317, 66, 3568], [582, 549, 3569], [934, 322, 3570], [1125, 327, 3571], [1458, 406, 3572], [413, 1525, 3573], [2923, 360, 3574], [977, 2942, 3575], [51, 44, 3576], [114, 313, 3577], [355, 370, 3578], [424, 305, 3579], [557, 330, 3580], [313, 789, 3581], [97, 1137, 3582], [1758, 319, 3583], [1947, 367, 3584], [828, 2054, 3585], [378, 104, 3586], [307, 408, 3587], [69, 408, 3588], [427, 327, 3589], [579, 519, 3590], [739, 107, 3591], [757, 354, 3592], [811, 401, 3593], [329, 1441, 3594], [1699, 296, 3595], [1451, 1995, 3596], [2075, 397, 3597], [2548, 628, 3598], [3122, 3163, 3599], [79, 110, 3600], [467, 362, 3601], [534, 117, 3602], [565, 815, 3603], [307, 823, 3604], [575, 1383, 3605], [2515, 3139, 3606], [108, 370, 3607], [101, 717, 3608], [303, 756, 3609], [299, 758, 3610], [303, 903, 3611], [922, 815, 3612], [509, 1536, 3613], [2822, 335, 3614], [910, 3609, 3615], [668, 310, 3616], [374, 671, 3617], [817, 318, 3618], [839, 1005, 3619], [295, 1092, 3620], [1474, 335, 3621], [1633, 519, 3622], [790, 1690, 3623], [1693, 1163, 3624], [2233, 358, 3625], [2593, 354, 3626], [2761, 480, 3627], [321, 108, 3628], [293, 376, 3629], [294, 410, 3630], [399, 421, 3631], [495, 459, 3632], [366, 593, 3633], [48, 904, 3634], [301, 1049, 3635], [1451, 2013, 3636], [999, 2519, 3637], [3006, 335, 3638], [600, 3029, 3639], [334, 3378, 3640], [79, 68, 3641], [49, 52, 3642], [67, 383, 3643], [342, 728, 3644], [1107, 314, 3645], [70, 1109, 3646], [1329, 1131, 3647], [1481, 352, 3648], [2177, 796, 3649], [2427, 108, 3650], [3201, 106, 3651], [3640, 470, 3652], [72, 77, 3653], [83, 64, 3654], [116, 382, 3655], [338, 383, 3656], [82, 422, 3657], [600, 747, 3658], [1075, 380, 3659], [604, 1305, 3660], [1399, 490, 3661], [1432, 1715, 3662], [1554, 3365, 3663], [101, 303, 3664], [811, 1150, 3665], [1427, 1518, 3666], [2000, 108, 3667], [2032, 453, 3668], [2873, 299, 3669], [3213, 652, 3670], [62, 256, 3671], [82, 67, 3672], [39, 50, 3673], [503, 102, 3674], [756, 107, 3675], [942, 325, 3676], [1959, 308, 3677], [295, 356, 3678], [757, 966, 3679], [1535, 445, 3680], [2277, 646, 3681], [2621, 44, 3682], [98, 388, 3683], [104, 775, 3684], [1174, 826, 3685], [1222, 369, 3686], [1723, 556, 3687], [636, 1984, 3688], [2142, 316, 3689], [76, 66, 3690], [116, 309, 3691], [108, 320, 3692], [423, 855, 3693], [345, 1151, 3694], [1537, 315, 3695], [1764, 377, 3696], [118, 1883, 3697], [1657, 2331, 3698], [2556, 374, 3699], [2602, 301, 3700], [3257, 652, 3701], [64, 115, 3702], [82, 44, 3703], [69, 79, 3704], [295, 355, 3705], [420, 355, 3706], [295, 567, 3707], [989, 834, 3708], [531, 1030, 3709], [608, 1172, 3710], [318, 1256, 3711], [1639, 314, 3712], [384, 3244, 3713], [312, 115, 3714], [340, 374, 3715], [428, 362, 3716], [535, 514, 3717], [558, 307, 3718], [398, 561, 3719], [741, 44, 3720], [1537, 293, 3721], [1626, 385, 3722], [2904, 103, 3723], [333, 314, 3724], [67, 334, 3725], [600, 572, 3726], [386, 755, 3727], [963, 327, 3728], [895, 988, 3729], [1359, 368, 3730], [1574, 842, 3731], [1852, 106, 3732], [2057, 626, 3733], [2249, 298, 3734], [3265, 456, 3735], [3361, 456, 3736], [104, 45, 3737], [329, 111, 3738], [414, 294, 3739], [337, 460, 3740], [347, 554, 3741], [581, 51, 3742], [423, 599, 3743], [600, 649, 3744], [607, 844, 3745], [110, 920, 3746], [1308, 341, 3747], [1429, 300, 3748], [2085, 304, 3749], [101, 2359, 3750], [2493, 437, 3751], [392, 68, 3752], [513, 604, 3753], [657, 375, 3754], [893, 1013, 3755], [107, 1137, 3756], [1474, 341, 3757], [1656, 402, 3758], [1688, 316, 3759], [2154, 1502, 3760], [114, 40, 3761], [35, 78, 3762], [297, 121, 3763], [890, 462, 3764], [754, 892, 3765], [950, 327, 3766], [1060, 506, 3767], [1235, 300, 3768], [1757, 1667, 3769], [2453, 1008, 3770], [2510, 110, 3771], [2057, 2531, 3772], [124, 35, 3773], [451, 294, 3774], [501, 342, 3775], [613, 380, 3776], [795, 303, 3777], [331, 903, 3778], [1146, 102, 3779], [2169, 349, 3780], [330, 395, 3781], [515, 348, 3782], [403, 687, 3783], [891, 369, 3784], [108, 961, 3785], [1290, 450, 3786], [1929, 540, 3787], [1437, 2333, 3788], [2838, 310, 3789], [113, 108, 3790], [81, 68, 3791], [111, 314, 3792], [297, 327, 3793], [433, 311, 3794], [548, 318, 3795], [812, 318, 3796], [477, 1128, 3797], [1482, 598, 3798], [331, 1548, 3799], [306, 104, 3800], [103, 319, 3801], [311, 368, 3802], [307, 679, 3803], [484, 716, 3804], [741, 295, 3805], [111, 1077, 3806], [1154, 508, 3807], [1659, 1090, 3808], [317, 1714, 3809], [1881, 1214, 3810], [2063, 422, 3811], [654, 2122, 3812], [396, 3255, 3813], [3291, 434, 3814], [630, 703, 3815], [828, 302, 3816], [1033, 554, 3817], [1456, 519, 3818], [1684, 599, 3819], [1501, 1979, 3820], [2317, 351, 3821], [2680, 507, 3822], [587, 2690, 3823], [2860, 422, 3824], [3092, 466, 3825], [476, 3185, 3826], [1147, 3452, 3827], [3553, 307, 3828], [64, 113, 3829], [97, 302, 3830], [372, 310, 3831], [294, 397, 3832], [54, 639, 3833], [688, 325, 3834], [107, 949, 3835], [1612, 1414, 3836], [1748, 342, 3837], [1899, 323, 3838], [74, 2323, 3839], [2417, 432, 3840], [114, 112, 3841], [82, 78, 3842], [678, 256, 3843], [1178, 314, 3844], [1182, 445, 3845], [1444, 385, 3846], [1601, 305, 3847], [294, 2228, 3848], [2297, 532, 3849], [79, 66, 3850], [101, 556, 3851], [49, 639, 3852], [723, 324, 3853], [785, 115, 3854], [1318, 106, 3855], [1971, 770, 3856], [3055, 365, 3857], [121, 256, 3858], [352, 316, 3859], [610, 362, 3860], [616, 115, 3861], [713, 446, 3862], [957, 506, 3863], [1253, 453, 3864], [494, 1454, 3865], [1888, 2044, 3866], [590, 2292, 3867], [2526, 2436, 3868], [2666, 380, 3869], [3301, 408, 3870], [2885, 3383, 3871], [367, 3739, 3872], [3790, 122, 3873], [376, 355, 3874], [444, 324, 3875], [313, 517, 3876], [797, 446, 3877], [602, 838, 3878], [845, 375, 3879], [942, 314, 3880], [482, 1015, 3881], [1029, 2123, 3882], [2124, 335, 3883], [576, 2230, 3884], [294, 2307, 3885], [68, 76, 3886], [103, 304, 3887], [306, 365, 3888], [295, 408, 3889], [435, 302, 3890], [446, 324, 3891], [448, 295, 3892], [109, 591, 3893], [798, 698, 3894], [44, 826, 3895], [826, 2272, 3896], [114, 3479, 3897], [2461, 3504, 3898], [3841, 113, 3899], [118, 113, 3900], [333, 323, 3901], [114, 358, 3902], [36, 603, 3903], [919, 729, 3904], [110, 1104, 3905], [467, 1350, 3906], [444, 1510, 3907], [701, 1651, 3908], [1206, 2091, 3909], [109, 311, 3910], [402, 327, 3911], [537, 305, 3912], [295, 548, 3913], [923, 349, 3914], [1286, 314, 3915], [1293, 666, 3916], [1966, 316, 3917], [969, 2650, 3918], [2754, 296, 3919], [339, 3297, 3920], [3349, 417, 3921], [426, 322, 3922], [581, 50, 3923], [53, 639, 3924], [1427, 296, 3925], [1683, 323, 3926], [1717, 1464, 3927], [924, 2081, 3928], [2574, 429, 3929], [2798, 349, 3930], [79, 299, 3931], [572, 310, 3932], [713, 104, 3933], [778, 892, 3934], [906, 319, 3935], [919, 813, 3936], [318, 1269, 3937], [99, 1312, 3938], [1517, 591, 3939], [1560, 1108, 3940], [1898, 370, 3941], [2098, 1765, 3942], [2112, 540, 3943], [3655, 527, 3944], [514, 3863, 3945], [111, 104, 3946], [81, 96, 3947], [524, 486, 3948], [568, 324, 3949], [1181, 340, 3950], [1427, 332, 3951], [563, 1430, 3952], [1273, 1642, 3953], [598, 2295, 3954], [81, 44, 3955], [75, 104, 3956], [39, 71, 3957], [115, 406, 3958], [422, 342, 3959], [101, 455, 3960], [520, 44, 3961], [733, 318, 3962], [878, 990, 3963], [620, 1119, 3964], [294, 1171, 3965], [1461, 115, 3966], [1537, 540, 3967], [1660, 305, 3968], [2254, 69, 3969], [820, 2819, 3970], [2850, 305, 3971], [369, 324, 3972], [394, 293, 3973], [364, 478, 3974], [352, 526, 3975], [120, 561, 3976], [511, 572, 3977], [610, 44, 3978], [820, 117, 3979], [959, 380, 3980], [1443, 659, 3981], [110, 1706, 3982], [1961, 401, 3983], [2635, 328, 3984], [2844, 507, 3985], [39, 65, 3986], [115, 360, 3987], [1044, 447, 3988], [117, 1086, 3989], [1292, 414, 3990], [1693, 293, 3991], [1830, 2346, 3992], [2426, 662, 3993], [3989, 111, 3994], [39, 70, 3995], [314, 348, 3996], [295, 416, 3997], [433, 303, 3998], [314, 463, 3999], [530, 354, 4000], [109, 719, 4001], [835, 507, 4002], [764, 838, 4003], [1656, 1307, 4004], [1646, 1745, 4005], [1970, 293, 4006], [2161, 375, 4007], [3136, 711, 4008], [306, 3674, 4009], [118, 104, 4010], [379, 306, 4011], [424, 327, 4012], [306, 426, 4013], [357, 452, 4014], [55, 639, 4015], [1164, 380, 4016], [1222, 295, 4017], [1006, 1396, 4018], [1465, 349, 4019], [1632, 401, 4020], [311, 371, 4021], [313, 485, 4022], [294, 525, 4023], [48, 639, 4024], [835, 887, 4025], [1378, 350, 4026], [352, 1805, 4027], [2102, 333, 4028], [2914, 813, 4029], [372, 3069, 4030], [69, 83, 4031], [76, 296, 4032], [113, 354, 4033], [116, 393, 4034], [697, 647, 4035], [863, 316, 4036], [1370, 1203, 4037], [107, 1517, 4038], [2696, 506, 4039], [3149, 306, 4040], [3505, 3041, 4041], [82, 72, 4042], [69, 434, 4043], [464, 82, 4044], [76, 471, 4045], [622, 322, 4046], [1000, 376, 4047], [1072, 445, 4048], [1331, 295, 4049], [756, 1934, 4050], [2222, 354, 4051], [443, 2469, 4052], [2573, 44, 4053], [2931, 882, 4054], [3170, 319, 4055], [2546, 3294, 4056], [3298, 338, 4057], [390, 3428, 4058], [317, 71, 4059], [563, 318, 4060], [730, 647, 4061], [789, 301, 4062], [899, 1134, 4063], [1147, 347, 4064], [1184, 327, 4065], [1241, 401, 4066], [477, 1309, 4067], [1607, 293, 4068], [590, 1711, 4069], [1763, 355, 4070], [1181, 2083, 4071], [1140, 2123, 4072], [3380, 1670, 4073], [3969, 1480, 4074], [97, 120, 4075], [333, 349, 4076], [361, 98, 4077], [366, 104, 4078], [581, 49, 4079], [294, 1131, 4080], [392, 1284, 4081], [1330, 295, 4082], [2171, 729, 4083], [2244, 305, 4084], [2600, 1697, 4085], [2678, 659, 4086], [637, 3801, 4087], [66, 311, 4088], [296, 456, 4089], [307, 493, 4090], [429, 826, 4091], [303, 1313, 4092], [2016, 349, 4093], [2219, 678, 4094], [83, 83, 4095], [525, 108, 4096], [1580, 335, 4097], [1859, 851, 4098], [2317, 532, 4099], [2893, 109, 4100], [345, 3464, 4101], [3990, 1499, 4102], [3385, 4062, 4103], [76, 44, 4104], [67, 44, 4105], [499, 256, 4106], [454, 748, 4107], [369, 1325, 4108], [1976, 1262, 4109], [2166, 316, 4110], [2613, 540, 4111], [359, 3434, 4112], [76, 68, 4113], [546, 295, 4114], [576, 118, 4115], [754, 662, 4116], [575, 804, 4117], [968, 732, 4118], [431, 1200, 4119], [2667, 493, 4120], [48, 43, 4121], [297, 102, 4122], [76, 313, 4123], [370, 346, 4124], [382, 104, 4125], [411, 108, 4126], [590, 513, 4127], [411, 621, 4128], [371, 872, 4129], [774, 1104, 4130], [1219, 401, 4131], [1447, 316, 4132], [1987, 1538, 4133], [3462, 505, 4134], [3694, 319, 4135], [3994, 3919, 4136], [118, 44, 4137], [113, 310, 4138], [312, 360, 4139], [79, 371, 4140], [304, 419, 4141], [329, 527, 4142], [51, 639, 4143], [2262, 1842, 4144], [69, 110, 4145], [75, 75, 4146], [64, 102, 4147], [315, 311, 4148], [564, 342, 4149], [40, 614, 4150], [655, 733, 4151], [357, 903, 4152], [1220, 659, 4153], [477, 1390, 4154], [1632, 349, 4155], [2526, 960, 4156], [2566, 480, 4157], [374, 3146, 4158], [353, 3970, 4159], [103, 438, 4160], [915, 306, 4161], [48, 1076, 4162], [537, 1115, 4163], [1422, 293, 4164], [1511, 1734, 4165], [2235, 380, 4166], [2461, 108, 4167], [2600, 3243, 4168], [340, 3722, 4169], [3725, 111, 4170], [78, 109, 4171], [76, 96, 4172], [582, 716, 4173], [824, 592, 4174], [429, 849, 4175], [913, 316, 4176], [944, 44, 4177], [1227, 807, 4178], [1276, 295, 4179], [1562, 1025, 4180], [1599, 1337, 4181], [2050, 316, 4182], [2493, 1086, 4183], [114, 3018, 4184], [682, 3519, 4185], [48, 56, 4186], [76, 116, 4187], [52, 47, 4188], [80, 44, 4189], [312, 432, 4190], [431, 437, 4191], [96, 460, 4192], [482, 110, 4193], [608, 553, 4194], [756, 44, 4195], [995, 663, 4196], [1118, 456, 4197], [1928, 371, 4198], [1953, 1108, 4199], [2062, 376, 4200], [2582, 118, 4201], [1489, 2732, 4202], [2019, 2927, 4203], [3402, 711, 4204], [3677, 1294, 4205], [119, 44, 4206], [79, 120, 4207], [42, 256, 4208], [82, 70, 4209], [97, 382, 4210], [343, 424, 4211], [78, 445, 4212], [115, 561, 4213], [634, 104, 4214], [649, 349, 4215], [435, 653, 4216], [348, 679, 4217], [744, 568, 4218], [762, 882, 4219], [1291, 314, 4220], [423, 1313, 4221], [539, 1559, 4222], [1133, 1669, 4223], [2159, 821, 4224], [2611, 404, 4225], [2613, 298, 4226], [3169, 104, 4227], [3583, 341, 4228], [600, 450, 4229], [600, 776, 4230], [808, 358, 4231], [1308, 1091, 4232], [331, 1341, 4233], [98, 1782, 4234], [1800, 111, 4235], [1338, 2245, 4236], [3046, 310, 4237], [3328, 3160, 4238], [80, 64, 4239], [296, 397, 4240], [732, 318, 4241], [895, 294, 4242], [939, 122, 4243], [946, 527, 4244], [1158, 307, 4245], [565, 1248, 4246], [1384, 316, 4247], [1692, 362, 4248], [1704, 295, 4249], [392, 1714, 4250], [1725, 729, 4251], [101, 113, 4252], [35, 106, 4253], [74, 64, 4254], [108, 304, 4255], [326, 117, 4256], [436, 98, 4257], [494, 365, 4258], [600, 879, 4259], [1154, 334, 4260], [1227, 1593, 4261], [2019, 422, 4262], [3692, 312, 4263], [124, 124, 4264], [333, 100, 4265], [733, 324, 4266], [102, 1550, 4267], [2481, 305, 4268], [97, 256, 4269], [433, 377, 4270], [446, 322, 4271], [113, 585, 4272], [114, 698, 4273], [484, 722, 4274], [1059, 651, 4275], [563, 1874, 4276], [433, 2205, 4277], [2316, 102, 4278], [3813, 2054, 4279], [4055, 310, 4280], [77, 64, 4281], [312, 110, 4282], [67, 313, 4283], [118, 437, 4284], [309, 502, 4285], [484, 568, 4286], [98, 690, 4287], [947, 305, 4288], [1429, 831, 4289], [1640, 401, 4290], [2704, 362, 4291], [2962, 1261, 4292], [80, 256, 4293], [78, 78, 4294], [359, 305, 4295], [528, 96, 4296], [99, 541, 4297], [678, 44, 4298], [329, 762, 4299], [820, 372, 4300], [345, 927, 4301], [2190, 380, 4302], [1827, 2251, 4303], [2306, 846, 4304], [2562, 305, 4305], [548, 2993, 4306], [3111, 487, 4307], [4011, 341, 4308], [102, 256, 4309], [75, 44, 4310], [316, 318, 4311], [377, 256, 4312], [344, 389, 4313], [403, 44, 4314], [120, 500, 4315], [557, 456, 4316], [361, 635, 4317], [321, 657, 4318], [744, 480, 4319], [307, 750, 4320], [752, 1072, 4321], [1483, 295, 4322], [1935, 549, 4323], [435, 2107, 4324], [76, 2490, 4325], [3068, 864, 4326], [3118, 408, 4327], [3426, 110, 4328], [306, 295, 4329], [303, 347, 4330], [293, 391, 4331], [76, 422, 4332], [587, 802, 4333], [814, 515, 4334], [798, 1025, 4335], [294, 1372, 4336], [1761, 407, 4337], [1859, 508, 4338], [1896, 349, 4339], [2427, 365, 4340], [1987, 2589, 4341], [2612, 1113, 4342], [3125, 577, 4343], [3028, 3164, 4344], [3753, 341, 4345], [448, 450, 4346], [466, 306, 4347], [490, 517, 4348], [531, 314, 4349], [963, 380, 4350], [1006, 418, 4351], [1048, 854, 4352], [1141, 838, 4353], [600, 1196, 4354], [1297, 324, 4355], [1733, 327, 4356], [1876, 662, 4357], [1976, 2163, 4358], [2183, 903, 4359], [2718, 2140, 4360], [2832, 418, 4361], [1251, 3865, 4362], [3998, 301, 4363], [82, 79, 4364], [71, 120, 4365], [116, 470, 4366], [318, 501, 4367], [537, 446, 4368], [634, 323, 4369], [50, 639, 4370], [454, 690, 4371], [101, 769, 4372], [520, 790, 4373], [820, 363, 4374], [969, 990, 4375], [1424, 965, 4376], [1482, 504, 4377], [298, 1670, 4378], [1750, 309, 4379], [1827, 314, 4380], [757, 1918, 4381], [2416, 1572, 4382], [2449, 44, 4383], [350, 115, 4384], [116, 390, 4385], [321, 410, 4386], [643, 362, 4387], [477, 1056, 4388], [1167, 295, 4389], [2293, 1622, 4390], [2438, 362, 4391], [311, 3905, 4392], [4057, 473, 4393], [35, 48, 4394], [82, 85, 4395], [396, 400, 4396], [411, 340, 4397], [441, 321, 4398], [343, 523, 4399], [610, 299, 4400], [523, 857, 4401], [484, 907, 4402], [1244, 1108, 4403], [1721, 111, 4404], [1757, 299, 4405], [97, 1861, 4406], [2381, 349, 4407], [2126, 2393, 4408], [2529, 1506, 4409], [531, 2702, 4410], [2707, 727, 4411], [2790, 729, 4412], [66, 107, 4413], [108, 299, 4414], [101, 305, 4415], [501, 376, 4416], [334, 874, 4417], [1142, 316, 4418], [2047, 314, 4419], [3651, 3527, 4420], [101, 256, 4421], [82, 103, 4422], [39, 68, 4423], [70, 44, 4424], [65, 307, 4425], [353, 306, 4426], [372, 455, 4427], [637, 615, 4428], [114, 908, 4429], [1523, 323, 4430], [1808, 408, 4431], [1515, 1931, 4432], [2006, 341, 4433], [2018, 44, 4434], [2745, 965, 4435], [3540, 306, 4436], [3628, 322, 4437], [4058, 360, 4438], [119, 4125, 4439], [1881, 4297, 4440], [70, 422, 4441], [423, 98, 4442], [351, 562, 4443], [630, 44, 4444], [959, 305, 4445], [1181, 298, 4446], [1310, 529, 4447], [1923, 324, 4448], [1929, 293, 4449], [1948, 108, 4450], [1659, 2082, 4451], [1182, 2584, 4452], [118, 2589, 4453], [528, 2738, 4454], [2957, 305, 4455], [3630, 1985, 4456], [4196, 44, 4457], [76, 67, 4458], [113, 293, 4459], [331, 114, 4460], [351, 314, 4461], [369, 407, 4462], [329, 626, 4463], [345, 746, 4464], [49, 1076, 4465], [1133, 1629, 4466], [1789, 660, 4467], [2718, 747, 4468], [101, 3442, 4469], [116, 300, 4470], [308, 295, 4471], [79, 311, 4472], [310, 348, 4473], [405, 301, 4474], [513, 97, 4475], [325, 700, 4476], [945, 311, 4477], [809, 1324, 4478], [1258, 1341, 4479], [1547, 887, 4480], [1955, 349, 4481], [2204, 399, 4482], [2262, 294, 4483], [2290, 314, 4484], [2645, 493, 4485], [2811, 421, 4486], [3293, 646, 4487], [3305, 517, 4488], [4227, 326, 4489], [82, 120, 4490], [373, 294, 4491], [107, 405, 4492], [315, 452, 4493], [108, 456, 4494], [709, 316, 4495], [602, 796, 4496], [898, 632, 4497], [537, 1016, 4498], [1099, 660, 4499], [1555, 1589, 4500], [1571, 1602, 4501], [117, 1780, 4502], [1981, 564, 4503], [2506, 324, 4504], [3076, 305, 4505], [3977, 1781, 4506], [1181, 4439, 4507], [103, 341, 4508], [383, 110, 4509], [321, 399, 4510], [316, 463, 4511], [529, 348, 4512], [759, 120, 4513], [1614, 99, 4514], [2267, 1345, 4515], [2549, 293, 4516], [2876, 515, 4517], [2958, 300, 4518], [39, 72, 4519], [65, 310, 4520], [452, 301, 4521], [497, 429, 4522], [116, 514, 4523], [617, 293, 4524], [56, 639, 4525], [81, 676, 4526], [753, 485, 4527], [824, 493, 4528], [343, 905, 4529], [1046, 838, 4530], [1451, 84, 4531], [1606, 295, 4532], [2222, 2337, 4533], [2486, 362, 4534], [2496, 728, 4535], [2635, 110, 4536], [455, 4491, 4537], [83, 118, 4538], [70, 116, 4539], [48, 55, 4540], [347, 506, 4541], [113, 584, 4542], [325, 684, 4543], [1461, 446, 4544], [416, 2419, 4545], [2581, 1703, 4546], [3310, 1307, 4547], [3613, 3304, 4548], [76, 79, 4549], [387, 392, 4550], [303, 618, 4551], [641, 305, 4552], [791, 314, 4553], [361, 793, 4554], [1077, 631, 4555], [114, 1106, 4556], [484, 1150, 4557], [1382, 545, 4558], [1500, 348, 4559], [1638, 493, 4560], [1961, 716, 4561], [1988, 1078, 4562], [464, 2202, 4563], [3437, 380, 4564], [3561, 314, 4565], [3756, 4270, 4566], [76, 78, 4567], [86, 256, 4568], [306, 44, 4569], [313, 335, 4570], [315, 359, 4571], [303, 398, 4572], [376, 437, 4573], [496, 556, 4574], [359, 583, 4575], [641, 445, 4576], [702, 698, 4577], [789, 456, 4578], [810, 842, 4579], [946, 554, 4580], [294, 1187, 4581], [2213, 519, 4582], [2364, 349, 4583], [111, 2490, 4584], [100, 3040, 4585], [39, 74, 4586], [343, 117, 4587], [343, 115, 4588], [66, 422, 4589], [501, 355, 4590], [321, 508, 4591], [596, 435, 4592], [665, 389, 4593], [477, 1055, 4594], [1372, 610, 4595], [399, 1506, 4596], [537, 1701, 4597], [2162, 314, 4598], [496, 3340, 4599], [4170, 1389, 4600], [1600, 4426, 4601], [4457, 3227, 4602], [111, 374, 4603], [293, 853, 4604], [963, 314, 4605], [355, 993, 4606], [1000, 391, 4607], [1043, 856, 4608], [1298, 349, 4609], [1331, 456, 4610], [350, 1432, 4611], [1963, 114, 4612], [911, 2449, 4613], [81, 2642, 4614], [3219, 391, 4615], [3249, 256, 4616], [3586, 372, 4617], [75, 68, 4618], [75, 78, 4619], [99, 312, 4620], [99, 332, 4621], [434, 419, 4622], [709, 335, 4623], [343, 860, 4624], [945, 492, 4625], [511, 956, 4626], [904, 1076, 4627], [1107, 293, 4628], [1148, 887, 4629], [44, 1224, 4630], [1316, 107, 4631], [1433, 115, 4632], [2391, 804, 4633], [2540, 102, 4634], [2799, 1933, 4635], [3064, 312, 4636], [109, 3179, 4637], [3196, 483, 4638], [3323, 323, 4639], [118, 110, 4640], [51, 47, 4641], [76, 442, 4642], [325, 500, 4643], [506, 323, 4644], [666, 348, 4645], [944, 369, 4646], [1097, 480, 4647], [448, 1153, 4648], [1244, 456, 4649], [350, 1536, 4650], [756, 2031, 4651], [2064, 982, 4652], [520, 2081, 4653], [2392, 1278, 4654], [2475, 327, 4655], [317, 2572, 4656], [3290, 1169, 4657], [3432, 1294, 4658], [1684, 3827, 4659], [4507, 711, 4660], [64, 67, 4661], [303, 315, 4662], [381, 310, 4663], [99, 651, 4664], [677, 371, 4665], [791, 295, 4666], [795, 44, 4667], [538, 822, 4668], [108, 843, 4669], [960, 44, 4670], [79, 1020, 4671], [1182, 295, 4672], [630, 1247, 4673], [1704, 990, 4674], [346, 1949, 4675], [2117, 1062, 4676], [345, 2209, 4677], [2072, 2284, 4678], [2564, 305, 4679], [2842, 1490, 4680], [3455, 2211, 4681], [3899, 2771, 4682], [522, 4459, 4683], [82, 71, 4684], [311, 365, 4685], [384, 301, 4686], [880, 327, 4687], [1277, 480, 4688], [454, 1402, 4689], [933, 1428, 4690], [1447, 44, 4691], [1768, 44, 4692], [1300, 2706, 4693], [3379, 711, 4694], [4034, 470, 4695], [82, 100, 4696], [35, 109, 4697], [307, 819, 4698], [922, 332, 4699], [101, 1341, 4700], [48, 1708, 4701], [496, 2058, 4702], [2326, 2272, 4703], [1004, 2429, 4704], [2564, 1042, 4705], [3510, 1287, 4706], [4411, 920, 4707], [103, 4537, 4708], [317, 77, 4709], [311, 340, 4710], [98, 362, 4711], [367, 495, 4712], [101, 512, 4713], [346, 552, 4714], [579, 306, 4715], [746, 314, 4716], [754, 309, 4717], [707, 879, 4718], [1159, 342, 4719], [1185, 1629, 4720], [2478, 450, 4721], [2644, 335, 4722], [2755, 483, 4723], [76, 2913, 4724], [2459, 3873, 4725], [665, 4508, 4726], [124, 91, 4727], [76, 81, 4728], [50, 49, 4729], [48, 51, 4730], [294, 109, 4731], [353, 110, 4732], [405, 116, 4733], [924, 694, 4734], [313, 927, 4735], [1545, 1885, 4736], [320, 1964, 4737], [2136, 102, 4738], [2179, 380, 4739], [2424, 323, 4740], [2469, 888, 4741], [3493, 2947, 4742], [2697, 3512, 4743], [100, 4474, 4744], [295, 370, 4745], [339, 397, 4746], [709, 293, 4747], [899, 929, 4748], [1131, 640, 4749], [1340, 826, 4750], [351, 1457, 4751], [1722, 1012, 4752], [1764, 451, 4753], [2219, 2189, 4754], [3042, 450, 4755], [4097, 463, 4756], [4386, 1389, 4757], [121, 316, 4758], [357, 310, 4759], [460, 315, 4760], [514, 98, 4761], [88, 544, 4762], [558, 44, 4763], [827, 844, 4764], [1419, 318, 4765], [1585, 554, 4766], [2242, 111, 4767], [2363, 1734, 4768], [329, 2531, 4769], [2594, 294, 4770], [2716, 256, 4771], [2256, 3367, 4772], [1348, 3500, 4773], [3557, 1654, 4774], [3800, 3859, 4775], [1538, 4385, 4776], [96, 365, 4777], [485, 300, 4778], [424, 687, 4779], [298, 695, 4780], [760, 490, 4781], [808, 322, 4782], [350, 822, 4783], [454, 882, 4784], [317, 1234, 4785], [1395, 341, 4786], [1465, 401, 4787], [72, 1837, 4788], [1888, 929, 4789], [1929, 298, 4790], [2315, 314, 4791], [1551, 2518, 4792], [2756, 349, 4793], [2990, 532, 4794], [3269, 2335, 4795], [109, 3888, 4796], [4045, 573, 4797], [1752, 4313, 4798], [3299, 4733, 4799], [79, 79, 4800], [87, 256, 4801], [306, 293, 4802], [316, 416, 4803], [426, 348, 4804], [329, 600, 4805], [602, 856, 4806], [563, 1026, 4807], [1159, 391, 4808], [435, 1181, 4809], [69, 1259, 4810], [1212, 1440, 4811], [317, 2071, 4812], [317, 2368, 4813], [3127, 453, 4814], [4475, 573, 4815], [40, 35, 4816], [66, 68, 4817], [73, 68, 4818], [48, 50, 4819], [413, 321, 4820], [102, 480, 4821], [514, 408, 4822], [108, 573, 4823], [767, 769, 4824], [553, 782, 4825], [785, 658, 4826], [924, 637, 4827], [1037, 549, 4828], [689, 1056, 4829], [1057, 578, 4830], [1429, 529, 4831], [2122, 339, 4832], [845, 2480, 4833], [878, 2628, 4834], [598, 2674, 4835], [1004, 3058, 4836], [3287, 2408, 4837], [3435, 298, 4838], [117, 392, 4839], [375, 517, 4840], [839, 515, 4841], [775, 870, 4842], [876, 430, 4843], [989, 815, 4844], [2297, 351, 4845], [2360, 362, 4846], [2540, 1819, 4847], [2548, 807, 4848], [2570, 380, 4849], [65, 2634, 4850], [605, 2985, 4851], [545, 3045, 4852], [3448, 1187, 4853], [3501, 2140, 4854], [3549, 323, 4855], [107, 328, 4856], [353, 114, 4857], [83, 353, 4858], [96, 363, 4859], [353, 390, 4860], [428, 352, 4861], [462, 352, 4862], [107, 663, 4863], [343, 664, 4864], [1064, 517, 4865], [1260, 359, 4866], [1071, 1335, 4867], [329, 1869, 4868], [1899, 559, 4869], [1974, 295, 4870], [2147, 119, 4871], [2387, 1587, 4872], [2946, 316, 4873], [3033, 429, 4874], [3951, 426, 4875], [3983, 376, 4876], [4040, 305, 4877], [4252, 1102, 4878], [4321, 314, 4879], [4502, 353, 4880], [117, 110, 4881], [294, 106, 4882], [96, 307, 4883], [104, 335, 4884], [343, 348, 4885], [455, 44, 4886], [299, 502, 4887], [657, 660, 4888], [666, 322, 4889], [115, 717, 4890], [108, 719, 4891], [822, 119, 4892], [852, 490, 4893], [863, 698, 4894], [69, 889, 4895], [82, 1041, 4896], [1077, 299, 4897], [1972, 319, 4898], [2102, 493, 4899], [2468, 354, 4900], [2443, 2724, 4901], [538, 2867, 4902], [3749, 929, 4903], [3798, 896, 4904], [382, 4665, 4905], [355, 346, 4906], [331, 369, 4907], [72, 446, 4908], [348, 478, 4909], [501, 322, 4910], [527, 318, 4911], [599, 622, 4912], [827, 772, 4913], [1028, 316, 4914], [319, 1187, 4915], [1381, 358, 4916], [1343, 1667, 4917], [1915, 490, 4918], [1953, 1078, 4919], [3237, 1667, 4920], [1051, 3470, 4921], [103, 294, 4922], [327, 444, 4923], [497, 492, 4924], [69, 512, 4925], [563, 324, 4926], [107, 608, 4927], [477, 788, 4928], [1064, 775, 4929], [1289, 437, 4930], [2386, 456, 4931], [2456, 327, 4932], [2862, 108, 4933], [3005, 998, 4934], [1423, 3094, 4935], [1417, 4088, 4936], [4129, 747, 4937], [67, 68, 4938], [48, 52, 4939], [72, 337, 4940], [374, 316, 4941], [653, 295, 4942], [520, 686, 4943], [98, 1086, 4944], [1347, 314, 4945], [1887, 256, 4946], [75, 1946, 4947], [2229, 1162, 4948], [2404, 2335, 4949], [2437, 327, 4950], [2440, 1053, 4951], [3288, 314, 4952], [3898, 473, 4953], [4032, 4936, 4954], [67, 110, 4955], [115, 296, 4956], [114, 334, 4957], [619, 327, 4958], [811, 480, 4959], [945, 295, 4960], [1601, 1061, 4961], [1656, 1576, 4962], [1876, 309, 4963], [1955, 549, 4964], [1966, 349, 4965], [1984, 103, 4966], [2100, 608, 4967], [756, 2881, 4968], [3053, 358, 4969], [91, 3460, 4970], [4018, 323, 4971], [72, 110, 4972], [69, 100, 4973], [345, 109, 4974], [104, 357, 4975], [448, 335, 4976], [102, 451, 4977], [619, 517, 4978], [102, 708, 4979], [44, 733, 4980], [741, 684, 4981], [398, 799, 4982], [919, 940, 4983], [963, 305, 4984], [970, 846, 4985], [1384, 314, 4986], [1532, 295, 4987], [329, 1747, 4988], [1993, 896, 4989], [707, 2096, 4990], [2120, 592, 4991], [2342, 864, 4992], [2627, 1268, 4993], [304, 2983, 4994], [3552, 514, 4995], [3944, 358, 4996], [4640, 1747, 4997], [4732, 363, 4998], [66, 84, 4999]]}